<unk>	0
<s>	0
</s>	0
.	-3.11296
,	-3.76865
▁	-4.30675
ம்	-4.67672
ப்	-4.87875
க்	-4.89011
="	-4.89466
கள்	-4.97347
்	-5.16907
▁மற்றும்	-5.25964
)	-5.26091
wiki	-5.28849
doc	-5.29802
▁(	-5.30085
த்	-5.30558
▁ஒரு	-5.45687
ு	-5.57484
s	-5.60717
ன்	-5.6305
"	-5.63949
▁"	-5.69128
ல்	-5.69469
ஸ்	-5.75276
d	-5.77772
து	-5.7929
/	-5.81616
ய	-5.81726
>	-5.89988
ும்	-5.90924
ர்	-5.9172
ta	-5.93562
?	-5.94526
▁<	-5.95267
ச்	-5.96436
யில்	-5.97268
org	-5.97486
://	-5.97593
http	-5.97632
-	-5.97885
=	-5.97909
pedia	-5.98655
▁</	-5.98681
curi	-5.99115
url	-5.99129
▁title	-5.99168
▁id	-5.99196
">	-5.99986
ட்	-6.03904
த்தில்	-6.0645
▁இந்த	-6.08194
க	-6.0832
களில்	-6.12049
களை	-6.1536
க்கு	-6.15714
யின்	-6.16643
▁அ	-6.21472
▁இது	-6.24017
ங்கள்	-6.24238
ன	-6.25462
▁ஆம்	-6.25789
ில்	-6.32511
ின்	-6.33875
ை	-6.37011
வ	-6.37745
களின்	-6.37863
த	-6.39884
▁என்ற	-6.40714
யை	-6.41348
த்தின்	-6.42733
ரி	-6.43139
▁இவர்	-6.44097
ி	-6.45067
சு	-6.4569
ம	-6.46175
டி	-6.48182
▁உள்ள	-6.48677
சி	-6.49253
:	-6.50266
▁அல்லது	-6.51788
▁பல	-6.52672
த்தை	-6.53634
க்க	-6.54105
▁என்பது	-6.58072
ப	-6.60446
தி	-6.60812
த்த	-6.61835
▁ஆண்டு	-6.61928
வை	-6.62464
வர்	-6.62871
வி	-6.6307
வு	-6.63806
▁ஆகும்	-6.64201
னி	-6.65353
ல	-6.65408
ர	-6.65482
ா	-6.66131
▁முதல்	-6.66282
ரா	-6.66481
ார்	-6.68444
மாக	-6.68526
லி	-6.69158
▁க	-6.71074
▁இ	-6.7336
கா	-6.73926
யும்	-6.74911
மா	-6.75241
ட	-6.76038
மான	-6.76134
ந்த	-6.76645
டு	-6.76888
▁என்று	-6.7707
மை	-6.79195
ச	-6.79956
பி	-6.8536
▁என	-6.8588
▁மேலும்	-6.87657
▁ச	-6.87717
ிய	-6.87758
▁போன்ற	-6.90297
▁ப	-6.90522
ப்ப	-6.91189
37	-6.92697
ப்பு	-6.93931
▁இல்	-6.94241
▁அவர்	-6.94579
▁உள்ளது	-6.95213
வா	-6.95382
ப்பட்ட	-6.95638
யாக	-6.95726
களும்	-6.96074
▁த	-6.96334
லா	-6.96541
யா	-6.96865
▁சில	-6.97434
த்து	-6.98339
வும்	-6.99259
வே	-7.00399
னா	-7.0072
▁கொண்ட	-7.01136
வின்	-7.01684
▁வி	-7.0319
ரை	-7.04681
▁இருந்து	-7.04859
களுக்கு	-7.05014
▁-	-7.05948
தா	-7.07248
மி	-7.07597
பா	-7.07802
கி	-7.08324
கு	-7.087
▁சி	-7.08853
னர்	-7.10819
லை	-7.11328
▁பயன்படுத்த	-7.11829
அ	-7.12242
▁ஆ	-7.12318
ாக	-7.13122
▁கா	-7.13137
ங்களில்	-7.13269
▁ஆண்டில்	-7.13583
▁வரை	-7.1567
ங்	-7.17036
▁("	-7.17248
ப்படுகிறது	-7.19025
ான	-7.19745
▁பி	-7.20064
▁இந்திய	-7.20288
ப்பட்டது	-7.21053
சா	-7.23137
▁கி	-7.23346
▁ம	-7.25131
ட்டு	-7.2518
க்கும்	-7.26657
▁உ	-7.26934
னை	-7.26945
),	-7.26947
;	-7.27342
▁18	-7.27449
▁கு	-7.28264
▁மா	-7.28881
தாக	-7.29346
ரு	-7.29491
▁சா	-7.29691
டை	-7.30031
▁மு	-7.30161
ே	-7.30247
யான	-7.30735
வில்	-7.31578
கோ	-7.31662
ந்து	-7.32649
▁எ	-7.32668
▁பா	-7.33135
ட்ட	-7.3321
▁இதன்	-7.34235
▁பின்னர்	-7.3454
▁ஆனால்	-7.35373
ங்களை	-7.35694
த்திற்கு	-7.36748
▁இருக்கும்	-7.37605
ப்படும்	-7.37902
▁துடுப்பாட்டப்	-7.38308
ற்ற	-7.38434
ால்	-7.40352
▁இரு	-7.40481
▁அதன்	-7.41193
▁தனது	-7.41874
மே	-7.42344
▁கோ	-7.43336
10	-7.43389
ட்டி	-7.43422
த்தி	-7.43471
▁மூலம்	-7.43582
ள	-7.44818
ண	-7.45153
40	-7.46226
12	-7.46304
▁செ	-7.46469
மும்	-7.46541
▁சு	-7.46691
ுக்கு	-7.48047
▁இரண்டு	-7.48496
▁கால	-7.48587
▁அந்த	-7.49145
யே	-7.49962
▁கொண்டு	-7.50199
▁போது	-7.50267
▁பு	-7.50591
▁டி	-7.52301
e	-7.52364
▁அது	-7.52422
ரோ	-7.52527
▁ஆவார்	-7.52541
ுள்ளது	-7.52779
▁என்னும்	-7.52806
▁தி	-7.5319
லாம்	-7.53435
▁மொழி	-7.53722
மு	-7.54106
று	-7.54307
ங்க	-7.55108
இ	-7.55138
S	-7.55516
கை	-7.55724
▁நிலை	-7.56405
ணி	-7.56428
▁தேசிய	-7.56699
▁தமிழ்	-7.5714
சன்	-7.5721
டா	-7.57231
▁அவரது	-7.575
▁மக்கள்	-7.57758
▁உள்ளன	-7.58153
றி	-7.5884
▁இருந்த	-7.59261
▁ஆகிய	-7.593
▁அணி	-7.59527
(	-7.60101
▁மே	-7.6021
▁முறை	-7.60468
ச்சி	-7.61428
▁ந	-7.61575
களைக்	-7.61577
")	-7.61706
▁மிகவும்	-7.61722
▁ஏ	-7.61736
டன்	-7.62315
யோ	-7.62403
பு	-7.62706
▁தா	-7.62771
களையும்	-7.63308
தை	-7.63614
8	-7.63913
▁பெயர்	-7.64402
ய்	-7.64774
38	-7.64807
ளி	-7.65594
o	-7.65663
ரின்	-7.65839
2	-7.65994
▁கொ	-7.6605
வ்	-7.66194
▁வகை	-7.66211
'	-7.6708
C	-7.67779
ரே	-7.69369
ஜி	-7.69504
களாக	-7.69515
▁1	-7.69555
▁இவை	-7.69877
11	-7.70101
▁திரு	-7.70339
ப்பட	-7.7059
ஆம்	-7.71076
ப்படுகின்றன	-7.72083
▁பகுதி	-7.72176
▁ஐ	-7.7224
▁19	-7.72415
▁நா	-7.72578
y	-7.72801
▁கே	-7.72918
39	-7.73064
▁பிற	-7.73659
ினார்	-7.7508
களால்	-7.75402
யி	-7.75633
▁வா	-7.75838
க்கி	-7.76123
▁பெரிய	-7.77104
யர்	-7.77121
9	-7.77282
▁தர	-7.77451
ங்களின்	-7.77465
▁பட	-7.78302
▁அமெரிக்க	-7.78303
ச்ச	-7.78554
▁துடுப்பாட்ட	-7.78666
n	-7.78672
நிலை	-7.79024
ுகிறது	-7.79176
▁பெற்ற	-7.79586
னின்	-7.79597
▁இருந்தது	-7.80183
ானது	-7.80739
▁வேண்டும்	-7.81145
▁கல்வி	-7.81523
யானது	-7.82009
ழ	-7.82023
▁ஆர்	-7.82259
▁உருவாக்க	-7.82308
ற	-7.82335
ண்ட	-7.82453
ள்	-7.82972
ழி	-7.83193
ுதல்	-7.83302
லோ	-7.83577
▁மூன்று	-7.83822
43	-7.84157
ஷ்	-7.84764
வது	-7.85357
▁செய்ய	-7.85872
போது	-7.86232
42	-7.86845
▁போ	-7.86916
▁வந்த	-7.86918
▁முக்கிய	-7.86945
▁அவை	-7.87014
▁3	-7.87037
ஆ	-7.87133
போ	-7.87338
5	-7.87871
A	-7.88388
▁வ	-7.88615
▁என்றும்	-7.88831
மானது	-7.88917
P	-7.89114
ிற்கு	-7.89123
ோ	-7.89154
வர	-7.89696
வோ	-7.89811
▁அதிக	-7.90122
லே	-7.90143
▁நில	-7.90299
னோ	-7.90485
ந	-7.90644
▁ஓ	-7.91227
M	-7.91317
▁காரணமாக	-7.91497
▁வெளி	-7.9239
கே	-7.92478
யூ	-7.92595
▁2	-7.9284
▁பூ	-7.93125
▁பின்	-7.93395
▁புதிய	-7.93571
▁நி	-7.94052
▁கலந்து	-7.94286
▁பொதுவாக	-7.94444
க்கா	-7.94491
சை	-7.94572
▁எனும்	-7.9471
a	-7.94985
▁இசை	-7.95024
▁திரைப்பட	-7.95125
▁ஒன்று	-7.95373
முறை	-7.95476
ப்பட்டு	-7.95492
▁தேர்வுத்	-7.95852
மீ	-7.95928
T	-7.96223
▁10	-7.96478
▁இதில்	-7.9648
▁செய்து	-7.96629
▁கை	-7.96748
ங்கு	-7.96828
3	-7.96857
▁பிறகு	-7.9687
களைப்	-7.97063
▁வினை	-7.97251
▁தன்	-7.97379
▁உலக	-7.97477
7	-7.97503
லின்	-7.97556
▁அடி	-7.97662
1	-7.97744
▁வர	-7.97835
%	-7.98237
41	-7.98289
▁கீழ்	-7.98426
▁மி	-7.98734
ுகின்றன	-7.98736
4	-7.98986
al	-7.99034
▁நோய்	-7.99096
▁அன்று	-7.9931
ற்று	-7.99397
▁5	-7.99598
▁ஆய்வு	-7.99642
▁ஒ	-7.99672
களுடன்	-7.99964
▁பல்வேறு	-8.00009
u	-8.00227
▁பே	-8.00606
டோ	-8.00647
கம்	-8.00652
ற்	-8.00774
▁வெற்றி	-8.01175
ள்ள	-8.01331
▁து	-8.014
▁மாநில	-8.01491
▁நகர	-8.01624
t	-8.02258
ிலிருந்து	-8.02292
ண்டி	-8.02455
▁போர்	-8.02502
யு	-8.02954
▁அளவு	-8.03042
▁மிக	-8.03258
▁அரசு	-8.03352
c	-8.03483
தால்	-8.03622
ியது	-8.03843
ிலும்	-8.03872
யாகும்	-8.04067
ப்பட்டுள்ளது	-8.04315
E	-8.04581
▁நீர்	-8.04631
ண்	-8.04789
▁17	-8.04999
▁மெ	-8.0504
மாகும்	-8.05048
சோ	-8.05466
ப்பி	-8.05658
த்தா	-8.05693
▁இன்	-8.057
20	-8.06108
க்கான	-8.06151
ரிய	-8.0622
▁மலை	-8.06363
மோ	-8.06436
▁ஆறு	-8.06474
▁இட	-8.06502
எ	-8.06643
▁இயக்க	-8.06713
ுடன்	-8.06767
▁இந்தியா	-8.06893
g	-8.07134
லு	-8.072
▁மாற்ற	-8.07341
▁தீ	-8.07746
▁அமைப்பு	-8.0809
னார்	-8.08151
▁சிறந்த	-8.08154
▁விட	-8.08372
ட்டா	-8.08676
▁கரு	-8.08768
▁சார்ந்த	-8.09017
ுள்ள	-8.09142
▁'	-8.09285
▁மீ	-8.09595
▁பெ	-8.10848
ிட	-8.11119
i	-8.11274
ழு	-8.11464
வில்லை	-8.11726
▁அவர்கள்	-8.11735
▁பெற	-8.11825
▁வழங்க	-8.11863
▁உற்பத்தி	-8.11885
",	-8.11915
▁பட்ட	-8.1193
6	-8.12097
▁அமைந்துள்ளது	-8.12127
▁பகுதியில்	-8.12138
▁பணி	-8.12158
▁4	-8.12252
க்கோ	-8.12574
▁தொடர்ந்து	-8.12622
▁பெற்றார்	-8.12639
▁படி	-8.12733
▁பிர	-8.12868
▁இவரது	-8.12984
▁ஓர்	-8.13421
▁சேர்ந்த	-8.13484
▁சோ	-8.13698
படி	-8.13701
▁சமூக	-8.13864
இல்	-8.14066
▁ஈ	-8.14365
கர்	-8.14662
▁குறிப்பிட்ட	-8.14679
▁C	-8.15099
▁கோயில்	-8.15192
D	-8.15223
▁பெண்	-8.15245
▁போட்டிகளிலும்	-8.15734
கிறது	-8.15751
ிருந்த	-8.15787
ைக்	-8.15884
B	-8.15948
▁இங்கு	-8.15983
ண்டு	-8.15989
யுடன்	-8.1609
க்கள்	-8.16382
யிலும்	-8.16977
r	-8.17213
▁S	-8.17753
ையும்	-8.17767
▁6	-8.17977
ாகும்	-8.18585
வன்	-8.18696
னே	-8.18737
றை	-8.18783
க்கூடிய	-8.18801
வர்கள்	-8.18823
▁இன	-8.18968
ப்பா	-8.19021
யைக்	-8.19039
நா	-8.19081
▁மற்ற	-8.19083
▁12	-8.19102
ாத	-8.19127
உ	-8.19326
▁தான்	-8.19436
▁15	-8.1968
ண்ட்	-8.1979
▁கலை	-8.20389
▁பொது	-8.20398
▁பள்ளி	-8.20494
▁சிறு	-8.2054
▁வே	-8.21142
▁மட்டுமே	-8.21291
▁பொருள்	-8.21383
▁அனைத்து	-8.214
யால்	-8.21764
யன்	-8.21883
in	-8.21957
k	-8.22094
செ	-8.22194
களிலும்	-8.22552
ம்ப	-8.2259
▁போட்டியில்	-8.22639
ராக	-8.23567
▁முன்	-8.23699
ூ	-8.23919
ங்களும்	-8.23943
▁வழி	-8.24049
▁காண	-8.24174
▁சட்ட	-8.24253
ஏ	-8.24331
▁அதே	-8.2434
த்துக்கு	-8.24546
ந்தி	-8.24551
▁ஆகியவை	-8.24614
▁மீது	-8.2469
▁16	-8.24692
லில்	-8.24738
விட	-8.24854
ர்கள்	-8.25247
ாமல்	-8.25446
ின	-8.25459
▁குழந்தை	-8.25485
▁பல்கலைக்கழக	-8.25574
ுவது	-8.26075
டே	-8.26095
N	-8.26153
▁பன்னாட்டு	-8.26367
▁மீண்டும்	-8.2702
▁வடிவ	-8.27068
▁ஒவ்வொரு	-8.27107
R	-8.27456
O	-8.27649
▁உயர்	-8.27685
▁அரச	-8.27997
ங்களுக்கு	-8.28157
ியல்	-8.28294
an	-8.28489
▁பிறப்பு	-8.28493
en	-8.28626
▁காலத்தில்	-8.28652
ar	-8.28755
▁நான்கு	-8.29093
▁A	-8.29131
▁இதனால்	-8.29608
▁இருப்பினும்	-8.29631
ரியா	-8.29672
▁ஜ	-8.29705
▁வட	-8.2972
ீ	-8.30056
▁சிறிய	-8.30384
▁போட்டிகளில்	-8.30432
ோர்	-8.30485
த்திலும்	-8.30765
வாக	-8.31027
டைய	-8.31044
▁கொள்ள	-8.31152
▁இந்தியாவின்	-8.31519
▁20	-8.31662
▁7	-8.31685
p	-8.31763
ஞ்ச	-8.31941
யைப்	-8.31962
▁மனித	-8.32016
▁பெரும்	-8.3202
தே	-8.32111
▁ஆட்சி	-8.32359
ெ	-8.32404
▁நிற	-8.32408
▁சென்னை	-8.32512
er	-8.32583
▁ர	-8.32617
▁பாட	-8.32656
▁வெ	-8.32903
▁தனி	-8.33038
▁கூட	-8.33051
h	-8.33077
▁ஒளி	-8.33123
▁பற்றி	-8.33252
ட்டை	-8.3326
▁தொகுதி	-8.33305
▁இருக்கிறது	-8.3349
▁மருத்துவ	-8.33654
▁செய்த	-8.33732
னிய	-8.33966
▁துணை	-8.34075
ுவதற்கு	-8.34103
ிருக்கும்	-8.34277
▁மறு	-8.34329
▁பதி	-8.34454
க்காக	-8.3468
▁செப்டம்பர்	-8.34735
”	-8.3474
யிலிருந்து	-8.34766
பை	-8.34792
▁அறிவியல்	-8.34847
b	-8.35011
▁கார்	-8.35252
ாலும்	-8.35455
த்திலிருந்து	-8.35529
ுள்ளார்	-8.35643
▁தேவை	-8.35713
▁இதை	-8.35762
▁ஒரே	-8.35939
▁வணிக	-8.3605
▁தந்தை	-8.36108
ான்	-8.36189
வரை	-8.36213
க்கப்பட்ட	-8.36219
,000	-8.36315
▁கெ	-8.36668
▁குழு	-8.36695
▁மேல்	-8.36772
தன்	-8.36859
த்துடன்	-8.36985
சே	-8.36996
ைப்	-8.37114
ங்கி	-8.37125
▁எஸ்	-8.37924
▁பொ	-8.38002
▁உணவு	-8.3801
▁பங்கு	-8.38428
l	-8.38455
▁இந்தப்	-8.38572
F	-8.38668
H	-8.38741
▁பிரி	-8.38834
▁தொடர்	-8.39033
m	-8.39034
▁குறிப்பிட	-8.39083
▁வெப்ப	-8.39228
▁வரும்	-8.39291
▁என்பதை	-8.39363
▁பற்றிய	-8.39705
▁தோ	-8.399
▁வேலை	-8.39923
▁படை	-8.3998
ங்கா	-8.40096
▁நிறுவனம்	-8.40326
▁குறை	-8.40459
▁ரா	-8.41014
▁தலை	-8.41066
▁மோ	-8.41124
0	-8.41138
▁என்பவர்	-8.41182
ஜ்	-8.41185
▁ஹ	-8.41201
▁இருக்க	-8.41311
L	-8.41704
▁8	-8.41799
▁இணைந்து	-8.42063
டர்	-8.42105
ிறது	-8.42326
▁கட்ட	-8.42486
or	-8.42523
▁தே	-8.42655
பட	-8.42676
▁இரண்டாம்	-8.42955
▁பெண்கள்	-8.43037
மன்	-8.43111
▁சே	-8.43288
▁விருது	-8.43573
▁நேர	-8.43712
)"	-8.4378
யம்	-8.43879
▁எதிர்	-8.43905
▁சம	-8.44034
▁வளர்ச்சி	-8.44137
▁ஆண்டுகளில்	-8.44141
▁உதவி	-8.44168
வியல்	-8.44303
▁குறைந்த	-8.44392
▁கல்லூரி	-8.44443
▁இலங்கை	-8.44554
▁எண்	-8.44585
▁போல	-8.44612
பர்	-8.44637
தர்	-8.4464
ளை	-8.44739
▁மூலமாக	-8.44746
▁M	-8.44749
I	-8.44757
▁மன	-8.44855
▁டை	-8.44925
ஹ	-8.45081
ஸ	-8.45146
▁சிகிச்சை	-8.45214
ஜ	-8.45542
ஸ்ட்	-8.45575
▁மத்திய	-8.45672
ம்பு	-8.45721
ாய்	-8.45739
தல்	-8.45772
▁நோ	-8.4582
▁இல்லை	-8.45825
பே	-8.46078
ப்படுத்த	-8.46155
▁விளக்க	-8.462
▁தற்போது	-8.46222
▁நாள்	-8.46223
▁தென்	-8.46344
ஷ	-8.46497
▁கதை	-8.46527
▁காணப்படும்	-8.46885
▁ஆண்ட	-8.47064
▁கூடிய	-8.4733
▁நடைபெற்ற	-8.47671
▁பீ	-8.47785
கன்	-8.48016
▁P	-8.48063
தான்	-8.48122
▁நீ	-8.48265
▁இடம்	-8.48312
▁பெரும்பாலும்	-8.48416
▁மைய	-8.48455
▁இலக்கிய	-8.48693
▁ஆராய்ச்சி	-8.48815
▁மாவட்டத்தில்	-8.48878
▁சிறப்பு	-8.48973
ரும்	-8.48986
ரீ	-8.49066
▁இணை	-8.49117
▁சேவை	-8.49123
தில்	-8.49198
ினை	-8.49292
▁அணியின்	-8.49312
▁எம்	-8.49593
▁ஊ	-8.50236
▁செல்ல	-8.50239
▁B	-8.50362
ருக்கு	-8.50791
▁ஒலி	-8.50834
▁முயற்சி	-8.50846
ப்பை	-8.50968
▁புற	-8.51149
▁11	-8.51165
வெ	-8.5123
▁பாடல்	-8.5127
▁இங்கிலாந்து	-8.51322
▁14	-8.51327
▁மேற்கு	-8.51972
எஸ்	-8.52169
ினர்	-8.52186
▁பார்	-8.52268
னால்	-8.52324
▁“	-8.52378
▁மின்	-8.52384
▁கூ	-8.52459
ூர்	-8.52654
ுள்ளன	-8.52702
▁தாக்க	-8.52745
விற்கு	-8.52774
ஜா	-8.52939
▁(19	-8.53008
00	-8.53335
▁நிகழ்ச்சி	-8.53466
ப்போ	-8.53533
சிய	-8.53536
▁சீ	-8.53556
▁வேறு	-8.53665
சீ	-8.53712
ற்ப	-8.53784
▁9	-8.54029
▁ஏற்படும்	-8.54199
▁ஹெ	-8.54332
த்தார்	-8.54461
▁மணி	-8.54649
▁அங்கு	-8.54664
▁இருந்தார்	-8.54675
▁கிழக்கு	-8.55059
▁துறை	-8.55059
தாகும்	-8.55197
▁போட்டி	-8.552
த்தால்	-8.55215
▁மூ	-8.55235
▁தொகை	-8.55318
த்தைக்	-8.55533
▁அளவில்	-8.55599
ரம்	-8.557
▁கட்சி	-8.55722
தாகவும்	-8.55763
ஃப்	-8.55782
▁சங்க	-8.55996
▁சொல்ல	-8.55998
▁முக	-8.56013
▁13	-8.56063
பூ	-8.56218
▁கருத்து	-8.56293
யையும்	-8.5643
சின்	-8.565
▁நிதி	-8.56659
▁கொண்டுள்ளார்	-8.56736
ளா	-8.56845
▁தொழில்	-8.56905
கள	-8.5706
▁நூல்	-8.57304
▁காட்ட	-8.5739
▁மர	-8.5741
பெ	-8.57508
ச்சு	-8.57674
▁லா	-8.5788
▁முதலில்	-8.58002
▁நிலையில்	-8.58076
▁கிராம	-8.58139
ஐ	-8.58144
f	-8.58227
ஞ்சி	-8.58344
▁பிரிவு	-8.5841
▁அதை	-8.58557
▁of	-8.58603
▁குறிப்பாக	-8.58641
▁இதற்கு	-8.58706
▁மூல	-8.58726
’	-8.59081
▁தமிழ்நாடு	-8.59196
▁செய்யப்பட்ட	-8.59198
▁பெற்றது	-8.59201
▁முடியும்	-8.59551
▁எந்த	-8.59664
▁ரோ	-8.59684
▁நாடு	-8.59762
க்காரர்	-8.59805
▁காட்சி	-8.59861
▁மத	-8.59869
▁என்	-8.60303
▁ஆக	-8.60305
19	-8.60548
▁டெ	-8.6058
களுக்கான	-8.6064
த்திய	-8.60654
▁தலைமை	-8.60723
தர	-8.60988
▁கல	-8.61067
னில்	-8.61144
லம்	-8.61196
▁லி	-8.61343
ாவின்	-8.61377
த்திர	-8.6141
▁மாதம்	-8.61541
re	-8.61728
▁H	-8.61729
▁ஏற்பட்ட	-8.61761
▁பாதுகாப்பு	-8.61915
▁திரைப்படம்	-8.62111
▁ஆகியோர்	-8.62229
▁இதனை	-8.62279
▁இறுதி	-8.62438
▁"(	-8.62468
▁கூற	-8.62745
▁எல்லை	-8.62817
ரெ	-8.63107
▁கூட்ட	-8.63123
த்தையும்	-8.63144
▁செல்	-8.63311
ப்பட்டார்	-8.63518
களுக்கும்	-8.63664
▁ஜி	-8.63741
▁தொழில்நுட்ப	-8.64089
▁வழியாக	-8.64116
▁தொடர்பு	-8.6412
▁அக	-8.64288
ப்பட்டன	-8.64563
ch	-8.64601
ணை	-8.64627
▁பெரு	-8.6469
▁பயன்படுத்தி	-8.64776
▁ஐந்து	-8.64818
பின்	-8.64831
▁ஐக்கிய	-8.6487
▁இரண்டாவது	-8.64905
ாகவும்	-8.64975
▁முறையில்	-8.65028
வரும்	-8.65096
▁பால	-8.65125
▁சூ	-8.65166
]]	-8.65172
▁அடை	-8.65376
▁பிரித்தானிய	-8.65417
▁2008	-8.65516
▁பை	-8.65637
▁செலுத்த	-8.65699
▁தொலைக்காட்சி	-8.65721
பட்ட	-8.65934
க்கம்	-8.65959
▁T	-8.65968
▁தங்க	-8.66195
ழ்	-8.66252
▁பெரும்பாலான	-8.66319
▁கொண்டது	-8.66426
30	-8.6647
▁அமில	-8.66547
▁வெளிவந்த	-8.66607
க்ஸ்	-8.6668
▁தன்மை	-8.66895
▁பதவி	-8.67012
▁கண்ட	-8.67089
▁2009	-8.67185
▁கொண்டுள்ளது	-8.67301
ிருந்தார்	-8.67424
▁சோதனை	-8.67545
▁குடும்ப	-8.67604
ுகின்றனர்	-8.67605
▁அக்டோபர்	-8.67803
▁தலைவர்	-8.67897
முக	-8.67984
சர்	-8.68024
▁மொத்த	-8.68044
50	-8.68077
on	-8.68138
▁மாவட்ட	-8.68154
▁அதில்	-8.68191
▁உருவாக்கப்பட்ட	-8.68219
▁கடல்	-8.68269
▁ஆண்	-8.68291
▁ஆங்கில	-8.68383
மெ	-8.68431
ும்போது	-8.68484
▁ஜா	-8.68541
▁உறுப்பினராக	-8.68685
▁நாட்டின்	-8.68938
ic	-8.69081
பீ	-8.69168
▁நடந்த	-8.69262
ுகிறார்	-8.69265
▁ஒருநாள்	-8.69312
▁அமைந்த	-8.69427
▁உயிர்	-8.69442
கர	-8.6945
x	-8.69598
▁அதிகமாக	-8.69719
▁தள	-8.69764
விய	-8.69783
▁கொள்கை	-8.69866
▁[[	-8.69878
▁ஜெ	-8.69978
▁செய்யும்	-8.70068
am	-8.70091
▁இந்தியாவில்	-8.70195
தற்கு	-8.70738
என்	-8.70797
▁ஊர்	-8.70828
▁பெற்று	-8.70879
▁தயாரிக்க	-8.70916
▁திட்ட	-8.70954
த்தைப்	-8.71036
G	-8.71088
யார்	-8.71246
▁பயிற்சி	-8.71303
வுக்கு	-8.71338
▁மாவட்டம்	-8.71499
▁நிலையம்	-8.71723
டெ	-8.71791
▁அதற்கு	-8.71825
▁அமைந்துள்ள	-8.719
▁சொல்	-8.72041
▁பழ	-8.72097
▁நவம்பர்	-8.72114
ிடம்	-8.72121
ra	-8.72125
ri	-8.72195
▁உடல்	-8.72223
▁அடிப்படை	-8.72231
ட்ஸ்	-8.72316
வான	-8.72389
▁சுமார்	-8.72525
▁அறிய	-8.7267
ைத்	-8.72866
▁எழுத	-8.73133
வகை	-8.73187
கார்	-8.73277
▁தேதி	-8.73277
▁மாத	-8.73286
க்கை	-8.73752
▁யு	-8.73902
▁எனினும்	-8.73912
தோ	-8.73987
▁2007	-8.74149
▁மில்லியன்	-8.74234
யின	-8.74747
▁நிறுவன	-8.74779
களைத்	-8.74943
le	-8.75043
▁நெ	-8.75098
br	-8.75251
▁முதல்தர	-8.75257
▁கருவி	-8.75315
▁யூ	-8.75377
ப்பகுதி	-8.7551
▁அரசியல்	-8.75566
வீ	-8.75603
▁D	-8.75621
▁அணு	-8.75639
▁மாதிரி	-8.75748
▁ட	-8.75834
க்குப்	-8.75882
ங்களாக	-8.75958
▁பதிவு	-8.76005
▁காணப்படுகிறது	-8.76013
▁எனப்படும்	-8.76165
மான்	-8.76247
ஹா	-8.76351
னியா	-8.76483
ினால்	-8.76612
▁வகையில்	-8.7667
▁ஆகியவற்றை	-8.76757
ங்களிலும்	-8.76947
▁30	-8.76962
னும்	-8.7702
▁முழு	-8.77078
▁உடன்	-8.77149
களான	-8.77191
ன்ஸ்	-8.77248
▁செய்தி	-8.77273
▁ஹா	-8.77366
▁இவ்வ	-8.77406
▁பிறந்தார்	-8.77528
ிருந்தது	-8.77645
கெ	-8.77735
▁2011	-8.77779
▁எழுதிய	-8.77838
த்தல்	-8.7789
வழி	-8.78003
▁பகுதிகளில்	-8.78023
▁25	-8.78094
▁சென்று	-8.78182
▁மாகாண	-8.78216
▁பொருளாதார	-8.78628
▁புள்ளி	-8.78666
▁வருகிறது	-8.78744
▁நோக்கி	-8.78796
▁பர	-8.79026
▁வரலாற்று	-8.7903
▁வடக்கு	-8.79096
▁அவருடைய	-8.79145
▁போன்றவை	-8.79181
▁நோக்க	-8.79475
ா்	-8.79486
ுகின்றது	-8.79619
▁யா	-8.79837
த்துறை	-8.79838
ாளர்	-8.80005
_	-8.8003
யைத்	-8.80131
ிக்க	-8.80134
▁இடத்தில்	-8.80145
▁விமான	-8.802
▁விட்டு	-8.80208
சார்	-8.80268
▁அடுத்த	-8.80484
17	-8.806
▁உரிமை	-8.80618
▁புனித	-8.8081
▁அடிப்படையில்	-8.80904
▁தூ	-8.80936
படுத்த	-8.81003
▁ஆட்ட	-8.81044
▁அல்	-8.81152
▁எனவே	-8.81264
▁முதன்மை	-8.81315
▁எல்லா	-8.81467
▁நிலைய	-8.8149
▁நடவடிக்கை	-8.81502
▁எண்ணிக்கை	-8.81567
▁காலம்	-8.81764
▁சமய	-8.81933
▁ஆண்டின்	-8.82073
▁சூரிய	-8.82104
▁பெர்	-8.82126
வான்	-8.82155
ிக்	-8.82163
▁இந்தக்	-8.82321
னுக்கு	-8.82346
ரன்	-8.8239
▁ஏப்ரல்	-8.82508
ங்களைக்	-8.8251
ந்தா	-8.82519
▁வை	-8.82667
பார்	-8.82795
ur	-8.82807
▁ஒன்றாகும்	-8.82842
மின்	-8.82865
▁நாடக	-8.82944
▁நல்ல	-8.82945
▁முக்கியமான	-8.83027
▁சிவ	-8.83107
ல்லா	-8.83275
▁விலை	-8.83282
▁பால்	-8.83295
▁டா	-8.8349
15	-8.83653
▁தொ	-8.83657
ட்டர்	-8.83894
▁ஆல்	-8.83962
மொழி	-8.84003
▁பிறந்த	-8.84038
th	-8.84084
▁தடை	-8.84157
▁விளையாட்டு	-8.84233
▁ஜான்	-8.84261
▁2010	-8.84305
▁வரி	-8.84446
▁டோ	-8.84603
லும்	-8.84633
ப்படி	-8.84648
▁பக்க	-8.84665
▁உள்ளிட்ட	-8.84671
▁ல	-8.84746
▁வைத்து	-8.84844
த்தன்மை	-8.84914
▁2006	-8.84936
▁செல்லும்	-8.84993
▁பெயர	-8.85014
▁G	-8.85054
னெ	-8.85118
ங்களையும்	-8.85157
லர்	-8.85163
▁நீண்ட	-8.8528
சன	-8.85285
▁முடிவு	-8.85301
▁குறிப்பிடத்தக்க	-8.85375
is	-8.85469
▁ஆஃப்	-8.85548
▁மார்	-8.85551
▁பருவ	-8.85575
▁தங்கள்	-8.85602
▁பேச	-8.85628
ண்ண	-8.85738
ழை	-8.8582
▁மட்டும்	-8.85859
ing	-8.86218
▁செய்தார்	-8.86324
கொண்ட	-8.86386
வால்	-8.86436
▁நீக்க	-8.86509
ol	-8.86555
▁எதிரான	-8.86571
▁வாழ்க்கை	-8.86619
▁ஒருவர்	-8.86668
▁உட்	-8.86688
ரூ	-8.86896
▁பேர்	-8.86898
V	-8.86899
ட்டோ	-8.87088
▁விற்பனை	-8.87259
தீ	-8.8727
ிருக்கிறது	-8.87285
]	-8.87311
யியல்	-8.8744
▁கோவில்	-8.8764
னு	-8.87654
▁நேபாள	-8.87684
▁தெ	-8.87783
ித்த	-8.8781
ட்டின்	-8.87855
ஸி	-8.87934
▁நேர்	-8.87968
–	-8.8807
ோடு	-8.88276
▁குடி	-8.88554
▁நீர	-8.88632
▁மதிப்பு	-8.88865
தம்	-8.89004
வன	-8.89032
▁ஏற்ற	-8.89109
பூர்	-8.89143
▁2017	-8.89221
▁2018	-8.893
▁வந்தது	-8.89352
▁நடு	-8.89365
ேட்டு	-8.89438
ஷி	-8.89527
▁வருட	-8.89623
▁சர்வதேச	-8.89682
▁கருதப்படுகிறது	-8.8991
▁சென்ற	-8.90175
▁தாவர	-8.9026
▁–	-8.90327
▁முழுவதும்	-8.90338
▁இணைய	-8.90394
▁வார	-8.9049
at	-8.90537
▁பல்	-8.90744
▁புல	-8.90859
▁எனக்	-8.90881
லீ	-8.90916
ப்பட்டுள்ளன	-8.90925
ல்லி	-8.91006
▁கான்	-8.91056
▁எனவும்	-8.91071
▁நடத்த	-8.91201
▁E	-8.9131
36	-8.91364
▁மற்றொரு	-8.91429
▁உறுப்பினர்	-8.91549
யிட	-8.91557
18	-8.91718
யாகவும்	-8.91861
▁புத்தக	-8.91889
பதி	-8.91985
வுடன்	-8.92005
▁தேர்ந்தெடுக்க	-8.92081
▁நெல்	-8.92121
ரில்	-8.92186
▁பட்டம்	-8.92556
▁கணினி	-8.92585
v	-8.92629
▁மண	-8.92641
ாவில்	-8.92654
டீ	-8.92775
▁கனிம	-8.92776
மலை	-8.92824
▁F	-8.92833
▁சண்டை	-8.92894
▁திருமணம்	-8.92939
75	-8.92975
▁மீட்டர்	-8.93094
us	-8.93121
▁வீர	-8.93139
ாா்	-8.93206
▁அருகில்	-8.93332
▁நகர்	-8.93502
▁சக்தி	-8.93593
▁நாடுகளில்	-8.93654
▁ரி	-8.93979
▁தோற்ற	-8.9403
▁பார்க்க	-8.9411
ேன்	-8.94114
▁சரி	-8.94171
▁சின்ன	-8.94249
யல்	-8.94286
சம்	-8.94348
▁அவருக்கு	-8.94356
▁வீரர்	-8.94357
கொ	-8.94364
ிருக்க	-8.94391
▁மார்ச்	-8.94522
▁எதிராக	-8.94524
▁மன்னர்	-8.94525
ுக்கான	-8.9454
▁உண்டு	-8.9461
▁கன	-8.94654
யாளர்	-8.94744
▁செயல்	-8.94787
ுள்ளனர்	-8.94926
▁2005	-8.94931
▁உரு	-8.95278
னம்	-8.95301
▁இயற்கை	-8.95565
▁கிளை	-8.95606
சல்	-8.95612
▁வள	-8.95696
▁உறுதி	-8.95758
▁பங்குகொண்டார்	-8.95834
▁வரிசை	-8.95926
▁கண	-8.95953
90	-8.96064
▁தாய்	-8.96187
14	-8.96213
98	-8.96334
▁மறை	-8.96373
16	-8.96399
▁விரும்ப	-8.96475
▁எண்ண	-8.9666
▁தீவு	-8.96714
▁பொதுவான	-8.96735
▁தெற்கு	-8.9689
▁N	-8.96967
டின்	-8.97074
▁குறித்து	-8.97176
|	-8.97234
▁நூற்றாண்டில்	-8.97348
▁விதி	-8.97376
▁சாலை	-8.97386
▁வாழ்	-8.97457
▁நகரம்	-8.97477
▁R	-8.975
w	-8.97737
ங்கள	-8.98005
▁கட்டிட	-8.98012
▁வங்கி	-8.98024
ாட்சி	-8.98105
▁ஒன்றாக	-8.98168
el	-8.98242
▁கரிம	-8.98326
▁கண்	-8.98375
ௌ	-8.98511
▁பேர	-8.98676
▁குறித்த	-8.98759
▁அவ	-8.98791
ிருப்ப	-8.98824
25	-8.98837
▁24	-8.98842
▁திறன்	-8.9885
ிலேயே	-8.98877
பொ	-8.98919
99	-8.98977
▁ஷா	-8.99007
▁வயது	-8.99127
▁வேண்டிய	-8.99182
▁நடித்த	-8.99331
▁உருவ	-8.99396
▁அவரை	-8.99492
▁நான்	-8.99526
▁மகா	-8.99551
டிய	-8.99607
▁வசதி	-8.9971
▁கரை	-8.99801
ிலுள்ள	-8.99817
கால	-8.99858
▁அளிக்க	-9.00007
la	-9.00074
▁அமைப்ப	-9.00241
▁இவருக்கு	-9.00243
▁சர்	-9.00267
▁பிரா	-9.00346
▁இடை	-9.00374
▁இந்து	-9.00398
▁ஆற்றல்	-9.00475
▁21	-9.00496
த்துவ	-9.00606
▁வீ	-9.00624
ப்படுகின்றது	-9.0074
33	-9.00823
▁வந்து	-9.00837
த்தைச்	-9.00846
▁தொகுப்பு	-9.00967
▁சேர்ந்து	-9.01375
▁நாட்டு	-9.01577
கிரி	-9.01763
▁பெயரில்	-9.01779
ொ	-9.01795
▁I	-9.01875
▁படைகள்	-9.01934
77	-9.02043
▁தொடக்க	-9.0214
▁வட்ட	-9.02145
▁இரத்த	-9.02198
▁நூற்றாண்டு	-9.02406
▁ஒத்த	-9.02421
▁குரு	-9.02426
22	-9.02708
▁வைக்க	-9.02765
▁காணப்படுகின்றன	-9.02766
அழைக்கப்படுகிறது	-9.02774
▁அவற்றின்	-9.02841
▁கால்	-9.02867
▁வேதியியல்	-9.02901
சூ	-9.03186
▁கள	-9.03282
யெ	-9.03302
▁அலை	-9.03363
ul	-9.03551
▁ஸ்ரீ	-9.03607
▁இருக்கலாம்	-9.0361
▁இந்தத்	-9.03658
▁பழைய	-9.03681
▁நெடுஞ்சாலை	-9.03791
K	-9.03808
▁வர்த்தக	-9.0389
▁அதாவது	-9.03914
நி	-9.04061
▁2001	-9.04084
▁:	-9.04147
▁தேர்வு	-9.04158
ல்ல	-9.04176
▁முன்ன	-9.04248
▁இருக்கின்றன	-9.04268
▁மக	-9.04273
▁முன்னாள்	-9.04368
▁வரலாறு	-9.04452
▁தொலைவில்	-9.04499
▁எழுத்தாளர்	-9.04544
▁உள்	-9.04572
▁வருவாய்	-9.04642
▁அமெரிக்கா	-9.04748
ரான	-9.04882
மர்	-9.04892
▁நியூ	-9.04904
ண்டா	-9.05003
▁முதல	-9.05172
வராக	-9.05284
▁மதுரை	-9.05409
13	-9.05474
▁ஜோ	-9.05714
▁டிசம்பர்	-9.05787
▁அதிகமான	-9.05803
▁மேற்பட்ட	-9.05806
▁தமது	-9.05887
▁K	-9.05888
▁இடையே	-9.05896
▁சுற்றி	-9.05951
லுக்கு	-9.05989
▁ஆரம்ப	-9.061
▁கருத	-9.06133
▁இல்லாத	-9.06198
டல்	-9.06203
ுக்கும்	-9.06229
மாகவும்	-9.06278
சாமி	-9.06352
▁ஏற்பட	-9.0638
எம்	-9.06396
▁சேர்த்து	-9.06406
ுக்	-9.06438
ஷன்	-9.06452
ூட்ட	-9.06609
▁அப்போது	-9.06781
35	-9.06826
▁தவிர	-9.0684
34	-9.06977
ட்டில்	-9.07065
▁புது	-9.07112
▁கூறு	-9.07124
U	-9.0715
▁உடைய	-9.07263
ைய	-9.07323
▁நிகழ்	-9.07324
வந்த	-9.07344
▁ஆண்டுகள்	-9.07381
வல்	-9.07526
க்குள்	-9.07545
ரால்	-9.076
ிறார்	-9.07726
▁சந்தை	-9.07736
▁தரவு	-9.07772
ன்ன	-9.07915
▁L	-9.08068
il	-9.08273
▁இர	-9.0834
▁சொ	-9.08422
▁எழுத்து	-9.08445
ைச்	-9.08598
▁வட்டம்	-9.08647
▁புரோ	-9.08726
ணு	-9.08737
▁வாழ்ந்த	-9.08822
ின்றன	-9.08846
▁போட்டியிலும்	-9.08857
ஃ	-9.09015
▁மருந்து	-9.09047
யைச்	-9.09078
▁மகன்	-9.0915
▁செல்வ	-9.09159
97	-9.09235
▁22	-9.09345
▁அதிகார	-9.09438
க்கிய	-9.09524
▁காரணி	-9.0958
▁வேக	-9.09601
▁2004	-9.09603
▁மனைவி	-9.09607
▁இடம்பெற்ற	-9.09635
70	-9.09796
▁டே	-9.09814
▁அதனை	-9.09824
▁கோல்	-9.09851
▁அறிமுகப்படுத்த	-9.0992
▁இடங்களில்	-9.0993
▁கீ	-9.09962
களைச்	-9.09964
▁மீன்	-9.09984
ப்பின்	-9.09997
▁பட்டியல்	-9.10069
▁தம்	-9.10073
▁கணித	-9.10089
திய	-9.10111
▁ஒன்ற	-9.10135
கல்	-9.10292
▁வைத்த	-9.10315
▁தமிழ	-9.10328
▁அவர்களின்	-9.10365
▁நடித்தார்	-9.10451
களுள்	-9.10466
தான	-9.10493
▁கண்ண	-9.10496
21	-9.10507
▁இறப்பு	-9.10591
▁ஏரி	-9.10655
▁தகவல்	-9.10686
47	-9.10854
▁மாற	-9.10869
ஜெ	-9.1092
தார	-9.11011
வார்	-9.11059
▁குறைவான	-9.11152
சியா	-9.11321
ங்கோ	-9.11374
▁சார்	-9.1144
▁நிர்வாக	-9.11542
▁குறிக்கும்	-9.11627
கார	-9.11691
▁அழைக்க	-9.11824
ளவு	-9.11904
26	-9.11988
▁வெளியிட	-9.12026
ணம்	-9.12092
▁ஆப்	-9.12104
ஒ	-9.12201
ுவதாக	-9.12209
▁மண்டல	-9.12241
▁எரி	-9.12334
▁ஐரோப்பிய	-9.12414
தற்காக	-9.1256
யுள்ள	-9.12576
ீடு	-9.12596
76	-9.12679
ந்திர	-9.12688
▁அயனி	-9.1277
லிய	-9.12784
▁நேரத்தில்	-9.12794
மணி	-9.12821
80	-9.1285
▁சை	-9.13091
▁உள்ளனர்	-9.13104
▁கட்டுரை	-9.13144
▁மிகப்	-9.13174
72	-9.13211
ுவதை	-9.13245
வல	-9.13268
▁போல்	-9.13376
44	-9.1341
▁காரண	-9.13461
▁பாரம்பரிய	-9.13572
▁மாறி	-9.13601
▁கட்டுப்படுத்த	-9.13632
▁தேவ	-9.13649
▁சுதந்திர	-9.13676
▁நகரில்	-9.1391
▁முனை	-9.13925
த்திற்கான	-9.13945
46	-9.13962
▁நிறுவனத்தின்	-9.1402
களிலிருந்து	-9.1404
கின்றன	-9.14083
க்கல்	-9.14145
▁நேச	-9.14148
மார்	-9.1417
▁[	-9.14244
ுடைய	-9.14374
▁செய்	-9.14567
ும	-9.14572
▁கோட்டை	-9.14599
மர	-9.14685
▁the	-9.14796
▁உள்ளார்	-9.14811
▁மூலக்கூற்று	-9.14825
▁‘	-9.14865
05	-9.1493
48	-9.14967
▁ஆக்க	-9.14972
ப்பர்	-9.15014
▁கொண்டிருக்கும்	-9.1503
▁முன்பு	-9.15145
▁நிகழ்வு	-9.15304
▁ஆன்	-9.15335
85	-9.15368
▁ஆவண	-9.15375
▁ஆண்டுகளுக்கு	-9.15402
க்கால	-9.15404
▁மாநிலத்தின்	-9.15435
li	-9.15538
49	-9.15566
▁ஜே	-9.15672
▁ஏற்படுத்த	-9.15863
▁நம்பிக்கை	-9.15927
ha	-9.1595
82	-9.15992
ரான்	-9.16121
த்துக்	-9.16256
லன்	-9.16291
புரம்	-9.163
▁கொண்டார்	-9.16352
▁அளித்த	-9.16357
நில	-9.16362
▁வெளிப்படுத்த	-9.16382
45	-9.16412
▁ஓட்ட	-9.16469
▁குள	-9.165
லெ	-9.16573
▁மொழியில்	-9.16649
it	-9.16652
▁100	-9.16713
▁தமிழக	-9.16788
▁பகுதியாக	-9.16811
▁தயாரிப்பு	-9.16819
ஆர்	-9.16888
▁வருகிறார்	-9.16908
24	-9.16923
▁2016	-9.16983
▁இதழ்	-9.17047
▁திகதி	-9.17059
▁இத்திரைப்படத்த	-9.17166
▁வாய்ப்பு	-9.17188
▁வெள்ளை	-9.17198
கல	-9.17204
▁நடிகை	-9.1721
▁பயன்பாடு	-9.17389
ப்பில்	-9.17419
ாள்	-9.17439
ுவதற்கான	-9.17487
▁பிப்ரவரி	-9.17595
களுக்காக	-9.17624
ப்படவில்லை	-9.17697
▁அமிலம்	-9.17718
▁குண	-9.17727
யற்ற	-9.17873
மிக்க	-9.17932
88	-9.18039
▁அதனால்	-9.1811
ப்பதற்கு	-9.18131
னாக	-9.1816
▁செயல்முறை	-9.18182
ச்சா	-9.18241
▁கடற்கரை	-9.18355
▁திரை	-9.1845
▁செயல	-9.18452
▁பாத்திர	-9.18561
ாளி	-9.18564
ீட்டு	-9.18571
▁ஷ	-9.18628
96	-9.18631
▁மொ	-9.18664
ுவதற்காக	-9.18665
st	-9.18755
▁எழுதி	-9.18812
▁எல்	-9.18892
▁நவீன	-9.19035
▁இருந்தன	-9.19042
▁இப்	-9.19044
07	-9.19101
▁சீன	-9.19149
பாடு	-9.19159
டம்	-9.19161
86	-9.19181
ation	-9.19182
▁ஒப்பந்த	-9.19335
▁தேர்தல்	-9.1934
▁ராஜ	-9.19566
களாகும்	-9.19568
▁வாய்ந்த	-9.19608
வாய்	-9.19703
▁பிரதேச	-9.19923
▁வாழும்	-9.19924
▁முன்னர்	-9.19978
▁23	-9.201
▁எந்தவொரு	-9.20112
▁இவ்வாறு	-9.20136
▁ஏழு	-9.20256
▁கிமீ	-9.20321
!	-9.20335
▁ஆகியவற்றின்	-9.20447
▁இறுதியில்	-9.20568
▁சட்டமன்ற	-9.20645
வினை	-9.20702
▁தட	-9.20779
▁அமெரிக்காவில்	-9.21024
▁வெப்பநிலை	-9.21175
23	-9.21179
▁வலி	-9.21202
▁மிகுந்த	-9.21252
▁26	-9.21255
▁நாணய	-9.2134
த்தது	-9.21449
▁இராணுவ	-9.21451
73	-9.21476
▁எடை	-9.21538
▁மன்ற	-9.21614
▁சிங்	-9.21634
ள்ளி	-9.21641
▁பார்வை	-9.21744
களே	-9.21809
60	-9.2181
▁பௌத்த	-9.22079
▁இவரின்	-9.22124
▁தன்னுடைய	-9.22152
▁நீள	-9.22158
89	-9.22193
ேற்ற	-9.22217
▁பனி	-9.22342
▁இள	-9.22393
▁நாடுகள்	-9.22438
முள்ள	-9.22494
▁சபை	-9.22497
▁உலகின்	-9.22639
▁W	-9.22672
▁நிறுத்த	-9.22713
32	-9.22827
▁பரவலாக	-9.22894
ter	-9.22931
▁தொடர	-9.23063
▁சாத்திய	-9.23168
▁ஆதார	-9.23193
▁தின	-9.23201
28	-9.23236
▁லெ	-9.23256
ற்றி	-9.23258
▁மிகப்பெரிய	-9.23266
▁பயன்படுகிறது	-9.2328
▁27	-9.23385
▁தொடரில்	-9.23443
ப்படை	-9.23473
பிர	-9.23477
▁போராட்ட	-9.23496
65	-9.23499
த்தைத்	-9.23581
▁பாய்	-9.23637
▁சட்டம்	-9.23662
▁வந்தார்	-9.238
▁வகையான	-9.23808
te	-9.23842
▁முடி	-9.23877
▁அழி	-9.23885
▁2000	-9.23895
▁சதுர	-9.24019
▁உண்மை	-9.24051
வதற்கு	-9.24131
▁இணைந்த	-9.24156
▁சனவரி	-9.24183
செய்ய	-9.24186
▁ஆல்ப	-9.24456
87	-9.24468
▁விழா	-9.24499
ுமாறு	-9.24524
▁உலோக	-9.24555
மற்ற	-9.24594
ிணை	-9.24596
▁அதி	-9.2464
▁நாள	-9.24707
▁நம்ப	-9.24729
▁காந்தி	-9.2474
ிருக்கிறார்	-9.24746
ோட்ட	-9.24804
z	-9.24808
ro	-9.24827
▁இலை	-9.24903
▁அளவ	-9.24968
▁கடைசியாக	-9.25143
கீ	-9.25234
சில்	-9.2529
▁உச்ச	-9.2534
▁குறி	-9.25354
▁விகித	-9.25393
▁கொண்டிருந்த	-9.25396
▁சொந்த	-9.25414
நாயக	-9.25418
▁இடையில்	-9.25469
▁1,	-9.2547
▁பின்ன	-9.25506
பிரி	-9.25572
78	-9.25631
▁போன்று	-9.25663
et	-9.25699
▁மக்களின்	-9.25807
▁தொடர்புடைய	-9.25837
▁=	-9.26009
▁முந்தைய	-9.26047
மாகக்	-9.26162
▁நூற்றாண்டின்	-9.26198
▁1990	-9.26232
▁தூண்ட	-9.26261
த்தோ	-9.26373
▁பங்க	-9.26389
▁சராசரி	-9.26393
es	-9.26409
▁திரைப்படத்தில்	-9.26435
▁ஒப்ப	-9.26462
டியா	-9.26579
▁பதிப்ப	-9.2662
ாள	-9.26681
69	-9.26733
▁50	-9.26747
▁புலவர்	-9.26767
as	-9.26808
ப்படலாம்	-9.26829
06	-9.26843
▁திரும்ப	-9.26849
▁பொருட்கள்	-9.27088
▁படம்	-9.27122
▁விலங்கு	-9.27224
▁தொடர்பான	-9.27325
ாது	-9.27338
▁வெளியான	-9.27397
த்திற்காக	-9.27405
▁ஃபி	-9.27457
▁உயர்ந்த	-9.27483
▁மேற்	-9.27532
▁இந்தியத்	-9.27615
னல்	-9.27669
க்கிறது	-9.27683
▁கட்டி	-9.27684
▁இசுலாமிய	-9.27706
அவர்களது	-9.27748
ேஷ்	-9.2776
▁இரா	-9.27787
▁இயந்திர	-9.27826
ங்களுடன்	-9.27893
▁பாதை	-9.27978
▁வான்	-9.2802
▁பறவை	-9.281
▁உரை	-9.28106
ம்பா	-9.2814
ஃபி	-9.28174
▁நோயாளி	-9.28186
▁அக்	-9.28211
நீ	-9.28214
யில	-9.28239
▁மட்ட	-9.28379
▁ரெ	-9.28425
▁முன்னணி	-9.28491
எல்	-9.28517
க்கொண்ட	-9.28534
74	-9.28601
றா	-9.28632
ப்பொருள்	-9.28681
27	-9.28851
▁பூங்கா	-9.28937
▁விளை	-9.28979
▁அவற்றை	-9.29013
64	-9.29212
▁தேர்	-9.29216
▁பொருள	-9.29251
▁ஆனது	-9.29271
51	-9.29406
▁பொருத்த	-9.29498
▁பாக	-9.29532
▁தலைவராக	-9.29657
▁சுய	-9.29826
ed	-9.29904
ையில்	-9.29935
▁நிறுவனங்கள்	-9.29943
நீர்	-9.29974
வாதி	-9.30265
▁நல	-9.30373
▁2014	-9.30411
ுகின்ற	-9.30441
புரி	-9.30444
ங்களைப்	-9.30458
▁அறிக்கை	-9.30495
▁இத்தகைய	-9.30495
01	-9.30513
ணா	-9.30536
▁எடுத்து	-9.30538
▁கூறினார்	-9.30598
மைப்பு	-9.30669
விட்டு	-9.30701
▁பரவ	-9.30734
▁யோ	-9.30762
▁பயன்	-9.3079
▁உடை	-9.30845
▁இறை	-9.30851
▁அணை	-9.30905
ிகள்	-9.30906
▁கூட்டு	-9.30968
▁மக்கள்தொகை	-9.30987
55	-9.31056
வற்ற	-9.31157
▁இருப்ப	-9.3119
வரின்	-9.31229
வதி	-9.31294
டிக்	-9.31311
▁மாநிலத்தில்	-9.31341
▁சூலை	-9.31392
▁ஒன்றை	-9.31397
திரு	-9.31499
யீ	-9.31508
▁28	-9.31517
ின்றது	-9.31524
▁கொள்	-9.31527
றிய	-9.31546
▁விகிதம்	-9.31598
▁எடுக்க	-9.31599
மூ	-9.31606
▁மூலக்கூறு	-9.31761
▁கர	-9.31771
▁நடிகர்	-9.3179
▁கல்லூரியில்	-9.3197
▁மாற்று	-9.31984
▁அன்	-9.31995
▁நிகழ்ந்த	-9.3201
ப்பான	-9.32022
க்கப்பட்டது	-9.32057
▁வாங்க	-9.32222
ப்படுவது	-9.32306
▁நாடாளுமன்ற	-9.32355
▁என்ன	-9.32393
▁இளம்	-9.32401
ந்தை	-9.32423
93	-9.3243
பகுப்பு	-9.32568
▁அணிக்கு	-9.3264
▁உயர	-9.32688
▁ஓர	-9.32695
▁ஒற்றை	-9.32751
களிடம்	-9.32767
W	-9.32886
▁துவக்க	-9.32914
▁அனுப்ப	-9.32969
▁இவர்கள்	-9.32972
▁கல்	-9.33123
டாக	-9.33131
un	-9.33186
84	-9.33186
▁அல்ல	-9.33234
▁லே	-9.33299
▁உள்ளூர்	-9.33309
▁இறந்த	-9.33322
▁அவன்	-9.33327
▁மூன்றாவது	-9.33362
ர்களின்	-9.33363
▁புகழ்	-9.33463
▁பர்	-9.33475
▁1.	-9.33546
▁அறியப்பட்ட	-9.33595
▁c	-9.336
ஓ	-9.3364
வையாக	-9.33673
பர	-9.3371
மாற்ற	-9.33749
▁கிலோ	-9.33826
வள	-9.33834
தொ	-9.33867
▁ஏனெனில்	-9.33997
மிய	-9.33999
▁குறிக்க	-9.34086
பால்	-9.34138
ஸ்டர்	-9.34156
க்குழு	-9.34178
ப்படாத	-9.3431
▁படத்தில்	-9.34329
▁அழுத்த	-9.3434
▁தேவையான	-9.34365
▁தொடங்கியது	-9.34369
▁கொடுக்க	-9.34435
ஹி	-9.34566
▁அரசாங்க	-9.34574
ுவதால்	-9.3462
கான்	-9.34707
க்கே	-9.34715
▁ஹோ	-9.34725
▁உலகப்	-9.34825
▁திருமண	-9.34829
வாத	-9.3486
▁வழிமுறை	-9.3487
▁இதய	-9.34904
▁கோப்பை	-9.34908
▁பார்க்கப்பட்ட	-9.34918
▁வெளியிட்ட	-9.35004
ர்ஸ்	-9.35011
▁ஓவிய	-9.35031
ne	-9.3513
▁புவி	-9.35151
▁ரூ	-9.3521
▁ரே	-9.35287
▁2015	-9.3533
▁கிரேக்க	-9.35355
▁சீர	-9.35428
கின்	-9.35459
▁காரணம்	-9.35543
▁அரசின்	-9.35563
▁கிடைக்க	-9.35568
▁வேதி	-9.35648
▁பணியாற்றினார்	-9.35699
▁தடுக்க	-9.35841
▁வெளியிடப்பட்டது	-9.35909
யினை	-9.35924
▁விட்ட	-9.36002
▁எதிர்ப்பு	-9.36013
ரண	-9.36018
ma	-9.36171
▁1980	-9.36249
▁சுற்று	-9.36263
▁செயல்பாடு	-9.36291
▁வானூர்தி	-9.36315
▁இரட்டை	-9.36348
▁உதவ	-9.36373
▁முறையாக	-9.36691
▁செய்யப்பட்டது	-9.36716
▁கார்பன்	-9.36732
▁பதிலாக	-9.36739
▁மனிதர்	-9.36809
91	-9.36812
பிறப்பு	-9.36841
ட்ரோ	-9.36895
▁2003	-9.36911
56	-9.36919
▁எட்டு	-9.36932
▁அடுத்து	-9.36934
▁மழை	-9.36956
ல்லாத	-9.36976
▁விளைவாக	-9.36978
▁வங்காள	-9.37024
71	-9.37089
▁கொண்டாட	-9.37152
▁ஈர	-9.37179
▁காட்டு	-9.37239
▁பயண	-9.37249
ரங்க	-9.37254
▁திரவ	-9.37257
▁பென்	-9.37288
▁பண்டைய	-9.37372
விட்டது	-9.37411
ந்	-9.37439
52	-9.37452
ஹ்	-9.37454
▁அரி	-9.37495
▁உட்பட	-9.37502
▁சூன்	-9.37547
▁பகுதிகள்	-9.37662
▁இன்னும்	-9.37689
லான	-9.37711
▁0	-9.37795
▁வீடு	-9.37821
▁ஆசிரியர்	-9.37842
▁கண்டுபிடிக்க	-9.37891
▁கிமு	-9.37953
▁அழைக்கப்படும்	-9.37957
um	-9.38055
ன்று	-9.38085
54	-9.38114
▁சுர	-9.38124
▁வயதில்	-9.38142
81	-9.38166
ir	-9.38229
▁விளையாட	-9.38251
முனை	-9.38252
ப்பது	-9.38362
ன்ற	-9.38429
ண்டர்	-9.38457
▁திருப்ப	-9.38558
31	-9.38633
-19	-9.38734
▁அதிகாரி	-9.38857
▁இதே	-9.38946
29	-9.39009
▁கணக்க	-9.39091
▁ஆகியவற்றில்	-9.39101
▁நாட்ட	-9.39145
▁மாணவர்	-9.39168
லியா	-9.39191
▁விளம்பர	-9.39223
ித்து	-9.39335
▁ஊடக	-9.39361
▁வார்த்தை	-9.39396
ஸின்	-9.3959
▁பாக்	-9.39777
▁முன்னேற்ற	-9.39801
யாக்க	-9.39932
▁இராம	-9.40007
▁அடங்கும்	-9.40008
கொள்ள	-9.40032
வேண்டும்	-9.40044
னிக்	-9.40068
▁ஃப	-9.40069
▁மெய்	-9.40087
▁and	-9.40143
-1	-9.40187
▁கீழே	-9.40231
கண்ட	-9.40309
▁மண்	-9.40332
ளிக்க	-9.40373
ia	-9.40427
▁தற்போதைய	-9.40438
மிட	-9.40466
தாகக்	-9.40488
▁முட்டை	-9.40506
வரி	-9.40512
▁இன்று	-9.40605
53	-9.4068
ஷா	-9.40744
விலும்	-9.40758
04	-9.40844
▁மேலாண்மை	-9.40846
▁விளையாட்டுவீரர்	-9.40846
ுகிறார்கள்	-9.40852
▁அத்துடன்	-9.40858
▁கிராமம்	-9.40907
▁பாதுகாப்ப	-9.40925
மதி	-9.40947
▁V	-9.41025
▁குறு	-9.41062
▁பாடல்கள்	-9.41068
▁விபரக்குறிப்ப	-9.41119
▁பரிமாற்ற	-9.41129
▁இப்போது	-9.41228
▁அமைக்க	-9.41284
▁கிள	-9.41431
▁தன்னை	-9.4145
▁குட	-9.41562
கூ	-9.41584
j	-9.41609
க்குரிய	-9.41706
▁அமைக்கப்பட்ட	-9.41749
83	-9.41763
ப்பகுதியில்	-9.41792
▁புகழ்பெற்ற	-9.4195
▁தொலை	-9.42084
▁பிரபலமான	-9.42144
▁பேரரசு	-9.42152
▁பின்வருமாறு	-9.42219
த்தே	-9.42245
▁வழக்கு	-9.42257
▁அவ்வ	-9.42335
▁ஜனவரி	-9.42357
▁புத்த	-9.42362
▁அரு	-9.42404
▁அரங்க	-9.42421
▁ல்	-9.42446
▁2002	-9.42462
▁ஜூன்	-9.42563
லால்	-9.42629
▁பாதுகாக்க	-9.42635
▁லீ	-9.42663
▁தாக்குதல்	-9.42696
னியம்	-9.42747
na	-9.42772
08	-9.42819
பிள்	-9.42864
▁இசு	-9.42875
▁ரயில்	-9.42896
▁மை	-9.42905
▁தகுதி	-9.42914
▁இருந்தாலும்	-9.42921
▁வழக்க	-9.42925
▁தொழில	-9.4294
▁மேல	-9.42966
58	-9.43032
பாட	-9.43195
▁பரி	-9.43207
▁கட	-9.4325
▁பிரபல	-9.43287
▁கடந்த	-9.43315
▁மூன்றாம்	-9.43331
ட்சி	-9.43345
▁நுட்ப	-9.43371
பெர்	-9.43412
▁இருவரும்	-9.43467
▁முதலிய	-9.43471
பாட்ட	-9.43527
ிற்கான	-9.43616
▁கலைஞர்	-9.43626
▁பொறியியல்	-9.43642
தமிழ்நாடு	-9.43656
▁காற்று	-9.43656
ti	-9.43768
▁அச்ச	-9.43788
ஈ	-9.43793
ளு	-9.43815
▁கீழ	-9.43819
▁சுற்றுலா	-9.43863
▁வரு	-9.43878
▁கோட்பாடு	-9.43892
▁கார	-9.43913
▁மட	-9.43924
▁தமிழ்நாட்டின்	-9.4393
03	-9.43944
▁கடன்	-9.44026
▁விவசாய	-9.44075
▁மாவட்டத்தின்	-9.44097
▁வால்	-9.44158
hi	-9.44199
▁தேர்தலில்	-9.44209
▁பண்பு	-9.44302
68	-9.44318
▁தமிழ்த்	-9.44338
▁அறை	-9.4435
▁மரபு	-9.44377
ொரு	-9.44414
பொருள்	-9.4445
யிலான	-9.44466
▁ஆக்	-9.4449
▁தற்கால	-9.44535
▁கைப்பற்ற	-9.44554
திரைப்படம்	-9.44601
▁நாக	-9.44603
▁உப்பு	-9.44607
கட்ட	-9.44615
▁அர்	-9.44623
தும்	-9.44637
▁மதிப்ப	-9.44659
▁p	-9.44752
▁நீளம்	-9.44779
▁அர	-9.44828
னீ	-9.44833
▁இரண்ட	-9.44841
ரல்	-9.44889
▁குழந்தைகள்	-9.44889
மீன்	-9.44967
▁கப்பல்	-9.45072
▁in	-9.45113
▁அச்சு	-9.4514
▁கவிதை	-9.45218
67	-9.4526
▁சாதாரண	-9.45307
▁அரசியல்வாதி	-9.45326
▁தனிப்பட்ட	-9.45331
▁தத்துவ	-9.45336
▁விருப்ப	-9.45377
▁நாட்டில்	-9.45427
▁29	-9.45463
▁விளங்க	-9.45518
▁வம்ச	-9.45588
ற்க	-9.45648
களாகவும்	-9.45683
▁அனுமதி	-9.45686
▁வாகன	-9.45697
லூர்	-9.45842
▁கிரி	-9.45976
▁அடைந்த	-9.46097
▁முதன்	-9.46101
▁கோவில	-9.46153
வற்றை	-9.46166
புர	-9.46189
த்தின	-9.46398
▁நிறுவ	-9.4644
மேன்	-9.46612
▁மேம்படுத்த	-9.46626
▁வண்ண	-9.46673
▁முடிவ	-9.46695
▁விடு	-9.46723
▁)	-9.46775
02	-9.46787
பிடி	-9.46826
▁கதாபாத்திர	-9.4693
▁இக்	-9.47009
▁ராம	-9.47025
▁பகுதிகளை	-9.47053
▁திட்டம்	-9.47176
62	-9.47205
▁பிள்ளை	-9.47221
▁காட்டிலும்	-9.47265
94	-9.47267
ஸா	-9.47324
▁இணைப்பு	-9.47348
▁குற்ற	-9.47372
மையான	-9.47374
ate	-9.47449
▁நடிக்க	-9.47546
ீர்	-9.4757
பன்	-9.4761
▁வெளியிடப்பட்ட	-9.47697
▁சேர்மமாகும்	-9.4772
▁சிக்கல்	-9.47728
▁சூழ்நிலை	-9.4776
ுக்காக	-9.47871
▁சாதனை	-9.47956
▁நன்கு	-9.47995
▁மது	-9.48006
▁சந்திர	-9.48012
▁தெரிய	-9.48054
▁2011.	-9.4816
79	-9.48161
▁பண	-9.48177
se	-9.48216
▁எடுத்துக்	-9.48216
▁கடைசி	-9.48322
ுவர்	-9.48456
பகுதி	-9.48527
▁படைப்பு	-9.48552
ிட்ட	-9.48567
ட்டம்	-9.48574
▁பல்ல	-9.48604
▁ஹி	-9.48609
▁புரத	-9.48648
▁வாய்	-9.48672
▁குருதி	-9.48675
நாத	-9.4871
▁சென்	-9.48734
▁இரவு	-9.48745
95	-9.48763
ரசு	-9.48805
ஸில்	-9.48812
▁செய்தது	-9.48862
பிய	-9.48983
▁இம்	-9.49007
▁அனுபவ	-9.49091
லாக	-9.49174
ச்செ	-9.49182
▁பதிப்பு	-9.4922
நாட்ட	-9.49245
நோ	-9.49259
▁தை	-9.4928
▁குறைவாக	-9.493
களி	-9.49331
▁ஆசிய	-9.49367
வானது	-9.49403
▁கிருஷ்ண	-9.49428
▁கொள்ளவில்லை	-9.49478
▁தமிழ்நாட்டில்	-9.4957
▁இல்லாமல்	-9.49633
ine	-9.49779
▁வென்ற	-9.49834
▁கனடா	-9.49932
▁திறமை	-9.49937
▁கட்டமைப்பு	-9.49964
▁நீல	-9.49965
▁பாதிக்கப்பட்ட	-9.4997
▁கண்டறிய	-9.49971
▁ஆள	-9.50078
▁formula	-9.50125
▁கிலோமீட்டர்	-9.50129
▁உடல	-9.5014
ாண்டு	-9.50275
கின்றது	-9.50311
▁காற்ற	-9.5033
ுவதில்	-9.50343
▁அட்டை	-9.5039
வாகும்	-9.50414
▁வடி	-9.50442
▁வீட்டு	-9.50449
த்திற்கும்	-9.50514
▁சொற்	-9.50519
எடுத்துக்காட்டாக	-9.50536
ந்தர்	-9.50545
ாக்சி	-9.50551
92	-9.50573
▁எழுதப்பட்ட	-9.50657
▁இதுவே	-9.50708
▁வலை	-9.50732
▁வேறுபட்ட	-9.50758
63	-9.50799
ங்களால்	-9.508
ண்டை	-9.50883
கிறான்	-9.50904
லூ	-9.50911
▁இதழ	-9.51022
▁எனப்	-9.51148
▁எலும்பு	-9.5122
▁கடத்த	-9.5122
▁துறைமுக	-9.51225
▁சேர	-9.51303
ஃப	-9.51341
▁1970	-9.51408
▁பெயரை	-9.5144
▁மாற்றம்	-9.51477
ுவதன்	-9.51492
க்கின்	-9.51529
ent	-9.51662
▁வழங்கப்பட்டது	-9.51667
வார	-9.51694
ph	-9.51731
▁தொகுப்ப	-9.51746
ராய்	-9.51825
▁அதிகம்	-9.51906
▁பெண்ண	-9.51974
▁வகைப்படுத்த	-9.5205
யிலுள்ள	-9.52136
▁செலவ	-9.52148
▁தொழிலாளர்	-9.52171
▁ஆணைய	-9.52196
கின்றனர்	-9.52317
க்குத்	-9.52319
▁சிறப்பாக	-9.52382
ந்தது	-9.52399
த்தக்க	-9.52421
▁தமிழில்	-9.52514
▁குறைக்க	-9.52525
▁இந்தி	-9.52539
▁நினைவு	-9.52539
ிருக்கலாம்	-9.52631
▁முதலாம்	-9.52704
▁பத்திரிகை	-9.52722
▁வழக்கமாக	-9.52819
▁கலவை	-9.52877
▁சட்டமன்றத்	-9.52894
ுபவர்	-9.52917
ப்பெற்ற	-9.52964
61	-9.52975
▁தோன்ற	-9.53042
▁இம்ம	-9.53065
▁ஆற்றின்	-9.53125
டுகள்	-9.53155
▁உட்பட்ட	-9.53191
▁2013	-9.5321
▁வருகின்றன	-9.53226
ார்கள்	-9.53301
▁பிரச்சினை	-9.53317
▁சோடியம்	-9.53335
no	-9.53414
▁பிரெஞ்சு	-9.53475
ப்பூ	-9.53504
▁சர	-9.53574
கட	-9.5373
▁செயல்படுத்த	-9.53743
II	-9.53763
▁வில்	-9.53772
▁அங்க	-9.538
▁O	-9.53995
▁விடுதலை	-9.54071
▁கட்டு	-9.5409
ல்ட்	-9.54095
▁புகை	-9.54104
▁வில்லியம்	-9.54255
▁பக	-9.54293
57	-9.54295
▁தொடங்கினார்	-9.54373
யூர்	-9.54411
போர்	-9.54523
▁அலி	-9.54567
▁மேற்கொள்ள	-9.54589
▁கதிர்	-9.54615
தல	-9.54646
▁அரை	-9.54704
ூர	-9.54748
+	-9.54766
▁முனைவர்	-9.54787
தூ	-9.54917
த்தினை	-9.54955
▁தசை	-9.5504
▁மரண	-9.55066
க்கர்	-9.5507
பால	-9.5512
▁கிடைத்த	-9.55184
ரிக்	-9.55216
▁பயணி	-9.55312
▁படத்தின்	-9.55347
▁பயன	-9.55409
▁மென்பொருள்	-9.55437
ராஜ்	-9.55444
▁மைல்	-9.55459
▁ராஜ்	-9.55464
▁இச்ச	-9.55484
▁பாறை	-9.55598
▁அறிஞர்	-9.55621
▁ஏறத்தாழ	-9.55661
▁பத்து	-9.55719
க்கூடும்	-9.5573
▁J	-9.55889
▁நடை	-9.55896
▁இல	-9.55896
▁உயிர	-9.55903
▁திசை	-9.55921
தில்லை	-9.55927
பாய்	-9.56002
தெ	-9.56019
ிற்காக	-9.56052
▁இக்க	-9.56139
▁நடைமுறை	-9.56169
▁நூல	-9.56179
▁மாற்றி	-9.56196
▁தயாரித்த	-9.56206
▁செயல்பட	-9.56244
▁காப்ப	-9.56271
▁வைர	-9.56299
▁ஜூலை	-9.56351
lo	-9.56409
▁மும்பை	-9.56463
▁இருப்பது	-9.5647
▁சேர்க்க	-9.56479
▁பன்	-9.56503
மடைந்த	-9.56543
▁நேரடியாக	-9.56555
▁விவரிக்க	-9.56557
66	-9.56565
59	-9.56587
▁ஊர	-9.56602
▁விதை	-9.56667
▁அளவை	-9.56683
▁பகுதியை	-9.56717
▁பாண்டிய	-9.56737
em	-9.56765
▁அனு	-9.56808
▁நரம்பு	-9.56827
▁2012	-9.56832
▁அம்	-9.56868
▁பரிசு	-9.56888
▁ஆகத்து	-9.56909
▁நதி	-9.56975
▁கிரா	-9.56985
▁காதல்	-9.57046
ஞ்சு	-9.57069
▁என்பதால்	-9.57172
J	-9.57186
▁பிரிக்க	-9.572
மம்	-9.57227
ரச	-9.57232
ந்த்	-9.5724
வத	-9.57294
▁வானியல்	-9.57296
▁பிடித்த	-9.57337
▁நூலக	-9.57453
ட்ச	-9.57544
▁நேரம்	-9.57547
த்தன	-9.57576
▁ஸ்க	-9.5764
ப்பணி	-9.57659
▁2.	-9.57673
வெளி	-9.57695
▁பொறுப்ப	-9.57719
▁முதலாவது	-9.57738
▁எடுத்த	-9.57846
▁குதிரை	-9.57881
▁வல்ல	-9.57899
மைய	-9.57964
▁அறிவ	-9.57969
▁இதர	-9.58045
ங்கை	-9.58048
▁கொண்டுள்ளன	-9.58116
▁அடையாள	-9.5813
▁கடை	-9.58159
தற்	-9.58204
▁வெவ்வேறு	-9.58223
ிற்கும்	-9.58381
கொள்	-9.58387
▁தரை	-9.58442
▁குறிப்ப	-9.58536
▁என்கிற	-9.5855
ண்டோ	-9.58552
வட்ட	-9.58552
▁புற்றுநோய்	-9.5863
▁திருத்த	-9.5866
▁ஓட்டங்கள்	-9.58685
▁வகுப்பு	-9.58701
▁கண்டு	-9.58785
▁ஏற்ப	-9.58791
▁அறிவு	-9.5884
ுகிறான்	-9.58848
▁இலங்கையின்	-9.58882
▁வெடி	-9.5889
▁வேறுபாடு	-9.58923
பியா	-9.58959
▁இப்ப	-9.59015
▁தொடங்கி	-9.59086
▁காய	-9.59125
▁வளர்ந்த	-9.59135
ஸ்ட	-9.59273
▁துறையில்	-9.59274
▁உத்தர	-9.59293
▁இணைக்கப்பட்ட	-9.59353
▁இருப்பதாக	-9.59447
▁போக்குவரத்து	-9.59497
ந்திய	-9.59673
இந்த	-9.59676
ால	-9.59709
▁அமைதி	-9.59766
▁நொதி	-9.59786
▁எழுத்துக்	-9.59787
▁இவ்வகை	-9.59862
▁கொடுத்த	-9.59954
ங்க்	-9.5996
▁மீதான	-9.59981
▁பாணி	-9.60013
▁தொல்லியல்	-9.60023
கிறாள்	-9.60114
▁தந்த	-9.60163
▁மக்களவை	-9.60176
▁பார	-9.60268
▁முடிய	-9.60277
▁வளைய	-9.60336
நேர	-9.60352
▁கட்டப்பட்ட	-9.60365
த்திலுள்ள	-9.60469
di	-9.60473
▁மாசு	-9.60492
▁இவற்றில்	-9.60517
கில்	-9.60529
ப்பாடு	-9.60606
▁மிக்க	-9.60634
▁நேரங்களில்	-9.60777
புற	-9.6083
▁உறவு	-9.60853
▁விரி	-9.6089
▁தல	-9.60923
▁பாராட்ட	-9.60946
▁இழந்த	-9.61063
▁விளைவு	-9.61082
▁பல்கலைக்கழகம்	-9.61094
▁சந்தித்த	-9.61099
க்கொண்டு	-9.61259
▁அடுக்கு	-9.61353
த்தான்	-9.61411
▁சிறை	-9.61456
யாளராக	-9.61489
ிடமிருந்து	-9.61522
▁ஆய்வ	-9.61565
▁உறுப்பு	-9.6157
▁ராஜா	-9.61593
ுள்	-9.61635
▁வடிவம்	-9.61665
▁சமுதாய	-9.61689
▁பாதி	-9.61748
▁நைட்	-9.6188
▁தோட்ட	-9.61883
▁நடத்தி	-9.61901
▁ஜீ	-9.61933
▁மலேசியா	-9.61959
os	-9.62015
▁தெலுங்கு	-9.62025
▁நகைச்சுவை	-9.62025
▁சேர்ம	-9.6206
யான்	-9.62141
க்கில்	-9.62153
▁ஊராட்சி	-9.62207
▁அளவிலான	-9.62264
ந்தார்	-9.62342
▁ஹை	-9.62379
▁மாநிலம்	-9.62386
▁ஆகஸ்ட்	-9.62453
களா	-9.62488
▁அடிக்கடி	-9.62533
▁சோவியத்	-9.62535
▁இராச்சிய	-9.62637
▁விசை	-9.62716
▁சுழற்சி	-9.62721
▁வெளியே	-9.62734
ளே	-9.62771
▁சிலை	-9.62822
▁செலவு	-9.62828
▁40	-9.62831
▁முழுமையாக	-9.62879
▁உருவாகிறது	-9.62884
▁அருகே	-9.62944
▁தெய்வ	-9.62949
ளித்த	-9.63037
▁நட்சத்திர	-9.63041
பெற்ற	-9.63051
வைக்	-9.63121
▁அமைந்தது	-9.63225
▁நிலையை	-9.63226
▁ஆண்கள்	-9.63318
ஒரு	-9.6334
கின்ற	-9.63377
▁உள்ளடக்க	-9.63461
▁இச்சேர்மம்	-9.63471
ப்பாக	-9.63524
▁கம்ப	-9.63545
▁கலாச்சார	-9.63559
▁பொருட்களை	-9.63712
விலிருந்து	-9.63717
க்கொ	-9.63808
▁மூத்த	-9.63857
வா்	-9.63953
▁இவற்றின்	-9.64022
கரு	-9.64103
ஞ்	-9.64115
▁1999	-9.64165
க்கப்பட்டு	-9.64207
▁முக்கியத்துவம்	-9.64241
▁டீ	-9.64248
▁மஞ்சள்	-9.64318
▁நே	-9.64488
▁உணவ	-9.6449
▁உறை	-9.64542
▁சிற்ற	-9.64555
▁இவருடைய	-9.64585
▁கண்ணாடி	-9.64586
▁நு	-9.6466
னுடன்	-9.64764
▁இவரை	-9.64854
▁உருவாக்கிய	-9.64888
▁கிறித்தவ	-9.64932
▁அடிப்படையாகக்	-9.64942
மாக்க	-9.64951
▁கிடைக்கும்	-9.64981
▁நடன	-9.64999
▁அறிமுக	-9.65026
வரு	-9.6509
▁நார்	-9.65091
நாட்டு	-9.65179
▁ஈடுபட்ட	-9.65199
▁பஞ்ச	-9.65222
▁ஆர்வ	-9.65229
▁வெளியேற்ற	-9.65234
▁பரிந்துரை	-9.65276
▁குறியீடு	-9.65283
யுடைய	-9.65283
▁அனுமதிக்க	-9.6532
▁வளர்	-9.65325
▁இவற்றை	-9.6537
▁பின்பு	-9.65472
me	-9.65503
▁இத்தாலிய	-9.65551
செய்த	-9.65611
ஜன்	-9.65614
▁புதின	-9.65664
▁பள்ளியில்	-9.65671
▁பிரதான	-9.65763
ப்புற	-9.65842
▁தோல்வி	-9.6587
▁என்றாலும்	-9.65886
ce	-9.65929
▁வாழ	-9.65931
▁போலவே	-9.65936
த்தூர்	-9.65963
நூல்	-9.65978
▁பயணம்	-9.66
▁செயற்கை	-9.66003
ட்ரா	-9.6601
▁கிபி	-9.66137
sh	-9.6614
வர்களுக்கு	-9.66157
▁கொண்டதாக	-9.66213
கிறார்	-9.66233
▁வைக்கப்பட்ட	-9.66235
▁கொடி	-9.66265
பில்	-9.66271
▁பத	-9.66276
▁தேட	-9.66381
▁மையமாக	-9.66391
▁மூளை	-9.66393
▁கர்	-9.66429
ளம்	-9.66448
▁+	-9.6645
▁போரில்	-9.66569
ஸ்டி	-9.66607
▁என்ப	-9.66633
▁பூச்சி	-9.66641
▁மாதத்தில்	-9.66751
▁எண்ணெய்	-9.66835
தோடு	-9.6686
▁திருவிழா	-9.66873
சான்	-9.66878
om	-9.66881
▁உண்மையான	-9.66894
▁இருந்தனர்	-9.66895
▁வடிவமைப்பு	-9.67012
▁எவ்வாறு	-9.67036
▁அண்ட்	-9.6712
▁வளை	-9.67191
▁அமை	-9.67291
பட்ச	-9.6735
▁என்றால்	-9.67403
▁இப்பகுதி	-9.67443
▁இயேசு	-9.67478
▁குல	-9.67521
▁நிறைந்த	-9.6753
▁நிறுவப்பட்டது	-9.67533
விட்டார்	-9.67543
ருவ	-9.67575
நகர	-9.67606
யினால்	-9.67617
தற்கான	-9.67627
ப்பிர	-9.6769
▁அமைத்த	-9.67696
கோள்	-9.67714
யினர்	-9.67729
▁தெரிவித்த	-9.67743
▁பேரரச	-9.67824
▁b	-9.67833
▁வெளியானது	-9.6795
பூர்வ	-9.67958
விட்ட	-9.67983
கிரா	-9.68046
தலை	-9.68147
▁கண்டறிந்த	-9.68174
வழ	-9.68182
▁31	-9.68213
▁வன	-9.683
▁வாயு	-9.68367
▁கிட்டத்தட்ட	-9.68462
▁கடுமையான	-9.68462
▁உறுப்பினர்கள்	-9.68518
▁டொ	-9.68537
▁பயிர்	-9.68558
▁கொலை	-9.68585
▁நாட்கள்	-9.6863
▁ஒளிபரப்ப	-9.6871
▁எழுதியுள்ளார்	-9.68715
▁பூமி	-9.68737
▁நடத்தை	-9.68757
▁பாக்கித்தான்	-9.68827
▁அந்	-9.68873
கூட	-9.68895
டில்	-9.68944
▁நூல்கள்	-9.68946
கார்ப	-9.68972
▁சரியான	-9.68992
க்குச்	-9.69002
பல	-9.69057
▁நபர்	-9.69168
▁பரிசோதனை	-9.69186
▁லோ	-9.6925
▁என்பன	-9.69253
முடி	-9.69313
▁படிக	-9.69346
மல்	-9.69347
ட்டிய	-9.69361
▁அரசர்	-9.69368
வடிவ	-9.69398
▁ஏற்பட்டது	-9.69417
▁அலகு	-9.69418
ai	-9.69448
திர்	-9.69522
▁சல்	-9.69532
▁நன்	-9.69627
ண்ணி	-9.69676
திர	-9.69707
vi	-9.69747
▁பின்பற்ற	-9.69938
ப்பூர்	-9.69999
செல்	-9.70021
▁தவற	-9.70124
▁சாதன	-9.70125
▁போன்றவற்றை	-9.70188
▁வீடியோ	-9.70283
▁வார்	-9.70295
▁இயக்கத்தில்	-9.70365
▁பிரதி	-9.704
லிங்	-9.70404
▁கேரள	-9.7044
▁மின்ன	-9.70574
▁உருவாகும்	-9.70661
▁கழக	-9.70695
▁ஊரில்	-9.70708
ற்கால	-9.70717
▁சகோதரர்	-9.70746
▁குழாய்	-9.70828
ராஜ	-9.70882
ிருந்தன	-9.709
செய்	-9.70904
▁அவர்களுக்கு	-9.70909
முடைய	-9.70918
▁ஆட	-9.70951
▁வெள்ளி	-9.70962
விடும்	-9.70984
▁கூடுதல்	-9.71
▁இருப்பதால்	-9.71081
க்களை	-9.71087
co	-9.71127
▁ஜெர்மனி	-9.71168
ாளர்கள்	-9.71231
▁மெக்	-9.71243
திலிருந்து	-9.71247
▁பொறி	-9.71259
▁இலக்க	-9.71391
▁கழகம்	-9.7141
▁நடித்துள்ளார்	-9.71428
ிலான	-9.71439
▁1960	-9.71469
▁நாம்	-9.71555
காண	-9.7156
▁வரையறை	-9.71566
▁அறியப்படுகிறது	-9.71586
▁அறிகுறி	-9.71801
ிசை	-9.71812
▁வழங்கி	-9.71817
▁1998	-9.71861
▁நியமிக்கப்பட்ட	-9.71936
▁சிங்க	-9.71965
▁என்பவர	-9.71986
▁ஆவர்	-9.72059
▁இருந்தால்	-9.7208
▁குறிக்கிறது	-9.7217
ிலிருந்த	-9.7223
▁தமிழர்	-9.72244
களோடு	-9.72274
▁நுழை	-9.72303
னுடைய	-9.7231
▁நீதிமன்ற	-9.72326
யிர	-9.72351
▁இந்தச்	-9.72399
▁60	-9.724
▁உருவாக்கும்	-9.7241
▁மல	-9.72438
▁வளாக	-9.72499
▁கணக்கிட	-9.72505
▁தெரிவிக்க	-9.72572
▁திறந்த	-9.72585
▁ஈடுபட	-9.7261
ரெட்	-9.72611
X	-9.72638
▁பிரிட்டிஷ்	-9.72683
Cl	-9.72702
▁ஆசியா	-9.72769
யிலேயே	-9.72783
▁தொடர்ந்த	-9.72897
▁தனியார்	-9.7294
▁கருத்த	-9.72963
▁அல	-9.72976
▁கட்சியின்	-9.72989
▁குளோரைடு	-9.73008
ாய	-9.73017
ிருந்து	-9.73063
▁மாலை	-9.73067
▁உள்நாட்டு	-9.73071
▁செய்கிறது	-9.7311
▁சிவப்பு	-9.73113
யாகக்	-9.73136
▁விஜய்	-9.73213
▁கொண்டிருந்தது	-9.73244
▁கடற்படை	-9.73247
▁ஜெர்மானிய	-9.73281
▁மாகாணத்தின்	-9.73289
▁தோன்றிய	-9.73345
▁பின்வரும்	-9.73358
ஃபா	-9.73358
▁தொடருந்து	-9.73436
▁ஒடுக்க	-9.73511
▁குரோ	-9.73533
▁ஆகியவற்ற	-9.73565
▁அணிக்காக	-9.73588
▁கையாள	-9.73639
▁கொல்ல	-9.73704
▁ஆகியன	-9.73736
▁அவள	-9.73819
யிடம்	-9.73917
மிழ்	-9.73928
▁இலக்கு	-9.73966
▁பெற்றோர்	-9.74025
▁வேர்	-9.74047
▁திரி	-9.74141
▁ஒன்றிய	-9.74204
▁இடைவெளி	-9.74208
தன	-9.74211
ுடனான	-9.74217
CO	-9.74237
▁திறன	-9.74296
▁நடத்திய	-9.74353
▁பழக்க	-9.74376
▁இருபது	-9.7439
▁வழங்கும்	-9.74449
▁ஆன	-9.74475
வேளை	-9.74485
▁தீவிர	-9.74665
போல	-9.74725
▁ஆய்வுகள்	-9.7473
▁தலைவி	-9.7475
▁தொழிற்சாலை	-9.74769
▁கூடுதலாக	-9.74772
சென்	-9.74776
▁கொண்டுள்ள	-9.748
▁குளிர்	-9.74922
▁பேரரசின்	-9.74958
வையும்	-9.74958
▁இயற்பியல்	-9.74991
பெரு	-9.74998
▁ஆதரவ	-9.75017
குளம்	-9.75027
▁சங்ககால	-9.75055
im	-9.75106
▁கத்தோலிக்க	-9.7515
ிப்பு	-9.75153
▁திரைப்படங்களில்	-9.75249
க்கொள்ள	-9.75257
▁காவல்	-9.75315
▁பந்து	-9.7535
▁பார்த்த	-9.75387
னான்	-9.75473
▁முறைமை	-9.75497
▁வங்காளதேச	-9.7554
ாக்க	-9.75564
ட்ரி	-9.75573
▁மாறு	-9.75578
ென	-9.75579
▁அங்கே	-9.75585
▁கூறி	-9.75616
▁மேற்கொண்ட	-9.75632
க்கின்றன	-9.75712
▁கூறப்படுகிறது	-9.75764
ாகக்	-9.75812
▁1991	-9.75812
ச்சர்	-9.75891
▁நை	-9.75925
▁சாதி	-9.75958
▁பொறுத்து	-9.75994
▁சூழ	-9.76004
▁போரின்	-9.76022
யோடு	-9.76095
வருக்கு	-9.76103
பென்	-9.76113
லாந்து	-9.76127
▁டிரை	-9.76132
▁பொருந்த	-9.76171
▁வாக்கு	-9.76171
▁அந்தப்	-9.76181
▁பச்சை	-9.76198
▁பின்னணி	-9.762
▁உதாரணமாக	-9.76291
▁பிரே	-9.76364
▁தயாரிப்ப	-9.76411
▁காம	-9.7642
▁ஞான	-9.76458
ஹெ	-9.76498
ப்படுத்தி	-9.7651
ாி	-9.76543
▁ஆயுத	-9.76561
▁விமர்சன	-9.76571
ல்கள்	-9.76631
▁ஆதி	-9.7667
▁அவள்	-9.76708
▁நடைபெறும்	-9.76737
த்திலேயே	-9.76762
▁உலகில்	-9.76791
க்குறி	-9.76797
▁விருதை	-9.76818
▁அடைய	-9.7684
▁காந்த	-9.76855
▁அமைப்பை	-9.76937
குடி	-9.76944
▁வருடம்	-9.76945
▁மக்களுக்கு	-9.77017
20"	-9.7707
▁நெறிமுறை	-9.77113
▁பாலி	-9.77123
▁ஆதரவு	-9.77168
▁சேத	-9.77182
▁பய	-9.77183
ிருக்கின்றன	-9.77308
▁ஆலை	-9.77356
தின்	-9.77386
▁என்பத	-9.77402
▁மண்ண	-9.77421
▁உறவ	-9.77424
▁கேள்வி	-9.77483
ad	-9.77503
▁இரும்பு	-9.77521
ிருந்தனர்	-9.77537
மூர்த்தி	-9.77556
ஞ	-9.77558
▁முடியாது	-9.77561
▁சீனா	-9.77582
ொன்ற	-9.77586
▁ரீதியாக	-9.77591
▁துணி	-9.77622
▁பெறும்	-9.77631
▁பயன்படும்	-9.77632
▁சேர்ந்தவர்	-9.77637
▁சுரங்க	-9.77666
கங்கள்	-9.77688
▁பாதிப்பு	-9.7773
▁இல்ல	-9.77748
▁தொடங்க	-9.77798
▁வேளாண்மை	-9.77829
▁செயலாக்க	-9.77838
▁கோட்ட	-9.77863
▁உண்மையில்	-9.77926
▁பயன்படுத்தும்	-9.78
வதை	-9.78002
▁சோழ	-9.78093
ோர	-9.78184
கொள்வத	-9.7823
▁வெளியேற	-9.78242
▁உள்ளடக்கிய	-9.7829
யாளர	-9.78413
ly	-9.78486
ut	-9.78525
▁காணலாம்	-9.78528
▁மித	-9.7854
ணர்	-9.78577
▁குகை	-9.78617
ம்பர்	-9.7863
ுமான	-9.7873
CH	-9.78736
ப்பே	-9.78741
09	-9.78743
மாய்	-9.78777
கையில்	-9.78784
வொ	-9.78858
▁எழு	-9.7886
▁ஆஸ்திரேலியா	-9.78864
▁வாய்ப்ப	-9.78911
க்கூட	-9.78913
▁வான	-9.78914
▁பயனர்	-9.78921
▁கன்	-9.78938
போல்	-9.78945
▁விளையாட்ட	-9.78954
▁பிணை	-9.78971
▁தில்லி	-9.79008
▁விண்மீன்	-9.79068
ப்பட்டனர்	-9.79084
க்கலை	-9.79089
ெடுத்த	-9.79124
▁டிரா	-9.79138
▁வயத	-9.79159
தார்	-9.79172
ட்சு	-9.79173
▁உயிரின	-9.79248
▁அரண்மனை	-9.7927
▁நிறைவு	-9.79308
▁நேரடி	-9.79312
▁a	-9.7941
▁கிராமத்தில்	-9.79445
▁பேரா	-9.79457
களுக்குப்	-9.79543
▁இவ்வி	-9.79587
▁கொள்ளும்	-9.79594
▁அதிகரிக்க	-9.79629
ப்பான்	-9.79642
▁நிறைவேற்ற	-9.79673
▁மலையாள	-9.79675
ay	-9.79677
லட்சுமி	-9.79686
நெல்	-9.79696
▁ஸ்டீ	-9.79724
▁நகராட்சி	-9.79744
பொழுது	-9.79759
▁சுந்தர	-9.79768
▁புரி	-9.79788
▁வாழ்வ	-9.79856
▁குடும்பம்	-9.79879
களாலும்	-9.79926
and	-9.79986
▁பற்	-9.80018
▁m	-9.80054
ுரு	-9.80068
லிங்க	-9.80073
▁அமைப்புகள்	-9.80101
டென்	-9.80175
▁கருப்பு	-9.80221
ப்படுத்தப்பட்ட	-9.80266
▁குறிப்பு	-9.80377
ற்கு	-9.80379
த்தனர்	-9.80386
டும்	-9.80393
▁மிகச்	-9.8052
▁அனைத்தும்	-9.80546
▁வது	-9.80556
▁காடு	-9.80556
▁ஆர	-9.80604
▁இத்த	-9.80728
ig	-9.80776
▁மின்சார	-9.80823
கலை	-9.80826
ெய்	-9.80879
▁விவர	-9.81006
பெரும்	-9.81049
▁எழுதினார்	-9.8107
க்கப்படும்	-9.81096
▁குவி	-9.8111
ப்படுகிறார்	-9.81155
ிடையே	-9.81265
▁பேருந்து	-9.81291
▁குறுகிய	-9.81292
▁மேலே	-9.81453
▁வானொலி	-9.81499
▁இத்	-9.81503
ாளராக	-9.81505
▁பட்டத்தை	-9.81519
▁அதிகரித்த	-9.81569
ெடுக்க	-9.81594
மென்	-9.81628
பேட்டை	-9.8167
ியாக	-9.81701
▁இத்திரைப்படம்	-9.81709
யிர்	-9.81735
▁உணர்வு	-9.8175
▁போர	-9.81758
ளவில்	-9.81804
ூரில்	-9.81826
தமிழ்	-9.81829
▁லூ	-9.81833
▁குறுக்க	-9.81834
▁நகரத்தில்	-9.81871
மானி	-9.81876
▁பொருட்	-9.81939
▁வருகை	-9.81977
▁ஏற்படுகிறது	-9.81993
▁1993	-9.82001
▁மரபணு	-9.82002
▁அறுவை	-9.82018
தொகு	-9.82039
▁அடையாளம்	-9.82051
▁சுத்த	-9.82072
▁கோவை	-9.8209
▁முடியாத	-9.82107
▁U	-9.8213
களிடையே	-9.82164
▁விஜய	-9.82191
▁சுருக்க	-9.82246
▁டேவிட்	-9.82283
▁புரட்சி	-9.82324
▁சமயத்தில்	-9.82338
ின்றனர்	-9.82419
▁ஆழ	-9.82445
▁புரிந்து	-9.82522
ow	-9.82529
ரண்	-9.8256
0%	-9.82585
▁அழற்சி	-9.82602
கத்தில்	-9.82614
▁தலைநகர	-9.82668
▁சமயம்	-9.82677
▁தென்னாப்பிரிக்க	-9.82731
▁பணியாற்றிய	-9.82737
▁மொத்தம்	-9.8274
▁வெளியீட்ட	-9.82749
▁எதிர்கால	-9.82767
77"	-9.82778
▁சேர்	-9.82796
▁தூர	-9.82806
39"	-9.82855
▁அமெரிக்காவின்	-9.82858
▁கட்டுரைகள்	-9.82876
▁நண்பர்	-9.82971
▁வேண்ட	-9.82971
▁ஓய்வு	-9.83006
▁மையம்	-9.83024
ரொ	-9.83046
</	-9.83058
▁இயக்கம்	-9.83062
▁பட்டியலில்	-9.83064
83"	-9.8307
47"	-9.83117
▁நியூயார்க்	-9.83156
ியுள்ளார்	-9.83165
de	-9.83216
60"	-9.83245
33"	-9.83255
ினுள்	-9.83278
04"	-9.83284
த்தீ	-9.83303
▁சங்கிலி	-9.83356
மில்	-9.83361
மேற்க	-9.8341
▁என்பவரால்	-9.83421
000	-9.83456
▁1996	-9.8346
▁கலந்த	-9.83489
▁தொடங்கிய	-9.83538
▁தஞ்சாவூர்	-9.8355
▁உருவாக்கி	-9.8357
65"	-9.83623
▁ஆராய	-9.83695
ell	-9.83701
ுவதில்லை	-9.83706
26"	-9.83727
▁முதன்மையான	-9.8375
▁ஆக்சி	-9.83773
▁திரைப்படமாகும்	-9.83776
▁நிலையான	-9.83882
▁அடக்க	-9.83884
▁கட்டுப்பாடு	-9.83889
▁வெள்ள	-9.83963
▁ஆல	-9.83984
▁யானை	-9.84117
ni	-9.84154
▁ரூபாய்	-9.84205
17"	-9.84386
93"	-9.84388
78"	-9.84482
92"	-9.84498
ருக்கும்	-9.84511
▁உலகம்	-9.84583
97"	-9.84602
▁பரிந்துரைக்க	-9.84617
▁ஆலய	-9.84617
▁மாறாக	-9.84644
▁ஏற்றுக்கொள்ள	-9.84657
▁சிம்	-9.84672
▁அவற்றில்	-9.84677
▁சிற்ப	-9.84749
24"	-9.8477
▁நீரில்	-9.84789
▁2,	-9.84791
த்தோடு	-9.84805
56"	-9.84919
▁ஏற்க	-9.84928
வம்	-9.84962
▁எடுத்துக்காட்டு	-9.84965
வீர	-9.84976
▁கேட்க	-9.84992
▁லீக்	-9.84999
▁கல்வெட்டு	-9.85006
▁நடைபெற்றது	-9.85016
▁எதிர	-9.85053
▁கோட்பாட்ட	-9.85055
64"	-9.85078
▁கண்டுபிடித்த	-9.85088
ணக்கெடுப்பின்படி	-9.8512
▁1995	-9.85122
▁கற்	-9.85154
98"	-9.85184
▁ஜெய	-9.85198
▁பெற்றவர்	-9.85232
▁வரலாற்றில்	-9.85251
▁கவனம்	-9.85282
54"	-9.85334
▁குறைபாடு	-9.85399
▁திருச்சபை	-9.85462
▁உணர	-9.85466
▁கூறிய	-9.85468
ho	-9.8547
▁கட்டட	-9.85475
30"	-9.85505
ீர	-9.85507
200	-9.85513
42"	-9.85585
ின்ற	-9.85664
op	-9.85689
▁சமவெளி	-9.85705
ப்பள்ளி	-9.85718
▁குழும	-9.85725
மய	-9.8579
▁ஓட்டங்களை	-9.85791
▁மென்	-9.85896
▁பிணைப்பு	-9.85943
▁பரப்ப	-9.86022
▁தடுப்ப	-9.86046
02"	-9.86053
▁திசம்பர்	-9.86103
74"	-9.86127
▁1992	-9.8619
அல்லது	-9.86246
வாறு	-9.86261
44"	-9.86316
▁கொழுப்பு	-9.86318
▁முன்னோடி	-9.86318
▁மரு	-9.86357
சில	-9.86391
▁வகித்த	-9.86398
▁அப்பா	-9.86403
▁வலிமை	-9.86434
னூர்	-9.86434
▁1997	-9.86436
ாகப்	-9.86449
சல	-9.86495
▁அப்	-9.86509
ியம்	-9.86515
▁எட்	-9.86518
▁இணைத்து	-9.86677
▁போன	-9.86678
▁விலகி	-9.86703
▁உயிரி	-9.86704
▁செய்தனர்	-9.8671
▁விழ	-9.86734
க்கெட்	-9.86818
▁முத்து	-9.86818
▁அவர்களை	-9.86848
▁புலி	-9.86862
76"	-9.86892
மியா	-9.86939
75"	-9.86961
09"	-9.86964
▁உத்தி	-9.87022
ருடன்	-9.87042
த்தியா	-9.87081
ென்று	-9.87083
▁உப	-9.87087
▁அற	-9.87092
இது	-9.87093
▁நுண்	-9.87099
25"	-9.87106
▁இவா்	-9.87129
ரிஸ்	-9.87165
ராம்	-9.87168
▁இளைய	-9.87176
▁சிறுகதை	-9.87181
▁இயங்க	-9.87218
▁நீதி	-9.87237
ந்தோ	-9.87239
19"	-9.87272
52"	-9.8733
▁வெளியிட்டது	-9.87347
▁அடர்த்தி	-9.874
59"	-9.87414
வரான	-9.87418
ீஸ்	-9.87422
▁சென்றார்	-9.87422
32"	-9.87432
▁இச்	-9.87559
▁ஸ்ட	-9.87606
ப்பட்டுள்ள	-9.87614
03"	-9.87616
▁மக்கள	-9.87623
14"	-9.87623
ci	-9.87628
84"	-9.87636
27"	-9.87747
90"	-9.87815
▁காலங்களில்	-9.87834
▁அகல	-9.87836
▁சிறப்ப	-9.87885
▁கைது	-9.87888
மூல	-9.87907
▁அறிந்த	-9.88008
▁குழுக்கள	-9.88018
▁இயக்குநர்	-9.88029
▁வகைகள்	-9.88039
▁இடத்தையும்	-9.88045
▁பெப்ரவரி	-9.88051
சிற்றிதழ்	-9.88052
மன	-9.88053
▁அந்தக்	-9.88065
த்தினால்	-9.88085
▁போன்றவற்ற	-9.88095
▁பலர்	-9.88148
▁வரையறுக்க	-9.88161
▁கேட்ட	-9.88202
▁கோடி	-9.88207
va	-9.88298
95"	-9.88379
31"	-9.884
இந்திய	-9.88421
னூ	-9.88424
▁ஆவது	-9.88443
▁உலகளாவிய	-9.88489
க்கல	-9.88521
▁தளபதி	-9.88535
36"	-9.88557
23"	-9.88587
▁அட்	-9.8863
▁மருத்துவமனை	-9.88688
ட்டான்	-9.88731
▁மருத்துவர்	-9.88747
id	-9.8875
ினாலும்	-9.88753
▁பாதிக்க	-9.88762
▁ஆக்கைவில	-9.88794
▁ஒப்பந்தம்	-9.88802
▁அசை	-9.88847
96"	-9.88853
▁கடந்து	-9.8892
ப்பெயர்	-9.89027
▁கிங்	-9.89054
ங்களான	-9.89055
▁மாகாணம்	-9.8907
ry	-9.89077
க்கப்படுகிறது	-9.89091
▁அலுவலக	-9.89108
்க	-9.8917
சொ	-9.89248
▁f	-9.89349
▁சதவீத	-9.89371
▁பில்	-9.8942
62"	-9.8943
34"	-9.89431
த்தம்	-9.89482
▁சூழல்	-9.895
▁200	-9.89512
▁பணியாளர்	-9.89557
▁அறிமுகமானார்	-9.89593
▁கடவுள்	-9.89696
▁சித்த	-9.89732
01"	-9.8975
79"	-9.89826
பொரு	-9.89851
▁மாகாணத்தில்	-9.89856
▁பேரரசர்	-9.89894
▁ஆரம்பத்தில்	-9.89907
46"	-9.89913
The	-9.89971
▁பிடிக்க	-9.89991
ட்ரிக்	-9.90022
சர	-9.90077
▁செங்க	-9.90106
ங்களுக்கும்	-9.90123
▁வித	-9.90161
22"	-9.90169
▁வரைபட	-9.90169
▁டாலர்	-9.90207
தள	-9.90231
▁வெளியிட்டார்	-9.90288
▁கவன	-9.90358
71"	-9.90397
▁அமையும்	-9.90416
▁அகற்ற	-9.90447
▁வளர்க்க	-9.90503
35"	-9.90514
▁ஐரோப்பா	-9.90603
▁படுத்த	-9.90613
▁உதவும்	-9.9073
ஸை	-9.90791
▁செயலி	-9.90794
88"	-9.90814
▁வாரிய	-9.90855
28"	-9.90885
வாசி	-9.90895
ீட்ட	-9.9094
▁ரீ	-9.90952
வூ	-9.90991
▁முழுமையான	-9.91029
▁பிளா	-9.91071
▁இலக்கண	-9.91122
▁சக	-9.91167
▁ஆனார்	-9.91213
ுவார்	-9.91222
▁பாடல்களை	-9.91243
53"	-9.91247
▁தவிர்க்க	-9.91248
▁அமைப்பின்	-9.91253
▁நடந்து	-9.91269
▁மாறுபட்ட	-9.91331
▁பாரி	-9.91348
வளை	-9.91348
▁இனங்கள்	-9.91358
ஸ்கோ	-9.91372
▁பிரதம	-9.91385
▁பல்கலைக்	-9.91386
த்தொகை	-9.9139
▁சிலர்	-9.9141
▁குமார்	-9.91471
▁ஆப்பிரிக்கா	-9.91474
ரியம்	-9.9153
▁அமைச்சர்	-9.91559
▁கடல	-9.916
48"	-9.91648
சார்ந்த	-9.91685
மொ	-9.91692
க்கூறு	-9.91702
▁துவங்க	-9.91741
வதாக	-9.91743
ிதழ	-9.91779
▁வாய்ப்பாட்டால	-9.91838
▁எண்ணி	-9.91844
டெர்	-9.9186
▁இம்மொழி	-9.91865
▁நிமிட	-9.91903
▁எடுக்கப்பட்ட	-9.91996
▁இந்தியப்	-9.92014
▁சங்கம்	-9.92026
IS	-9.92043
▁இயல்பு	-9.9208
▁முறைகள்	-9.9208
▁இருக்கிறார்	-9.92094
ist	-9.92098
▁வழியில்	-9.92148
69"	-9.92172
ஜர்	-9.92179
▁ஆங்கிலேய	-9.92183
▁படிக்க	-9.92187
05"	-9.92194
com	-9.92196
த்ரா	-9.92299
▁விரிவாக்க	-9.92315
▁வடிவில்	-9.92321
▁தப்பி	-9.92342
91"	-9.92383
ப்புகள்	-9.92423
குமார்	-9.92423
13"	-9.92427
மாற	-9.92429
ண்மை	-9.92432
ாகிய	-9.92441
ங்கிய	-9.9245
▁ஒன்பது	-9.92521
▁விண்வெளி	-9.92521
▁முஸ்லிம்	-9.92521
▁செடி	-9.92612
வச	-9.92632
▁தக்க	-9.92678
▁ஆற்ற	-9.92745
▁சௌ	-9.92782
ுடனும்	-9.92808
▁அமைச்சராக	-9.9285
ப்படு	-9.92856
▁பாடிய	-9.9289
துறை	-9.92924
67"	-9.92925
▁மக்களை	-9.92953
man	-9.92983
▁அளவுக்கு	-9.93056
மையை	-9.93073
81"	-9.93114
க்கோட்டை	-9.93148
▁செய்யப்படுகிறது	-9.93158
▁தேவி	-9.93163
08"	-9.93165
▁பரப்பு	-9.93178
▁அழைக்கப்பட்ட	-9.93181
▁வென்றார்	-9.93185
▁அணுக	-9.93208
பல்	-9.9322
▁பெருமை	-9.93234
வாழ்	-9.93235
ச்சொல்	-9.93276
நிற	-9.93284
▁பொருளாக	-9.93291
▁விற்க	-9.93321
▁அழிக்க	-9.9334
▁மக்	-9.93363
▁ஆனந்த	-9.93367
▁அண்ட	-9.93404
▁வரிசையில்	-9.9343
▁சிறிது	-9.93443
▁எப்	-9.93473
▁உயிரியல்	-9.93492
▁முறையை	-9.93574
▁இயக்குனர்	-9.93609
73"	-9.93724
▁மேடை	-9.93725
▁ஊக்க	-9.93725
68"	-9.93756
70"	-9.93782
▁உர	-9.93836
வீன	-9.93857
க்கண	-9.93874
▁தானிய	-9.9391
▁கட்டாய	-9.93945
▁செயல்படுகிறது	-9.93962
லிக்	-9.93968
III	-9.93998
▁அளவிற்கு	-9.94027
▁வாழ்ந்து	-9.94044
ide	-9.94057
55"	-9.94083
87"	-9.94136
நே	-9.94138
▁வழக்கமான	-9.94142
ot	-9.94146
82"	-9.94148
▁அழைத்து	-9.9419
லெக்	-9.94224
ையா	-9.94239
▁வேத	-9.94336
▁நான்காவது	-9.94367
50"	-9.94482
மண	-9.94529
▁சுவாமி	-9.94532
▁வின்	-9.94549
18"	-9.94613
▁வழங்கிய	-9.94654
▁பெருக்க	-9.94698
▁செய்யப்படும்	-9.94712
00"	-9.94726
-20	-9.94765
▁நாடுகளின்	-9.94793
▁நாட்களில்	-9.94817
▁திராவிட	-9.94835
▁ஜூ	-9.94891
85"	-9.94946
▁சேர்ந்தார்	-9.94968
ag	-9.94976
▁தாழ்	-9.95009
▁தொழிற்	-9.95061
▁உருவானது	-9.95066
▁சுகாதார	-9.95068
னைக்	-9.95077
▁தொலைவிலும்	-9.95082
99"	-9.95128
▁தொடு	-9.95169
▁திட்டமிட	-9.95177
▁கைப்பற்றி	-9.95209
▁இரயில்	-9.95212
▁இவ்	-9.95217
▁கூட்டணி	-9.95262
21"	-9.95341
80"	-9.95369
கூற	-9.95377
▁மகள்	-9.954
▁சதுரங்க	-9.95402
▁பொழுது	-9.95446
▁(1	-9.95446
▁வச	-9.95504
டார்	-9.95566
▁டு	-9.9558
86"	-9.95584
▁அடங்கிய	-9.95628
▁மதிப்பிட	-9.9564
▁குரல்	-9.95641
▁1986	-9.95658
பாளையம்	-9.95674
▁யார்	-9.95708
▁உருவான	-9.95716
ிற	-9.95753
▁ஆவி	-9.95758
▁வலியுறுத்த	-9.95773
▁இக்கோயில்	-9.958
°	-9.95839
த்தலை	-9.95842
▁இராச்சியம்	-9.95874
▁1989	-9.95889
▁பிள	-9.95892
▁சென்னையில்	-9.95905
▁நகரத்தின்	-9.95956
▁குண்டு	-9.95977
▁உடன	-9.96138
▁அண்ணா	-9.96164
ியுள்ளது	-9.96168
விலுள்ள	-9.96183
▁மன்னர	-9.96231
மட்ட	-9.96248
15"	-9.96256
06"	-9.96272
57"	-9.96276
▁மேலாக	-9.96311
ாளரும்	-9.96368
49"	-9.96377
11"	-9.96415
ேற்றம்	-9.96442
▁அவற்ற	-9.96448
51"	-9.96494
▁வாய்ப்பாடு	-9.96496
இன்	-9.965
▁சமண	-9.96518
▁நாட்டை	-9.96563
▁திரும்பி	-9.96567
▁1994	-9.96582
▁வேட	-9.96662
த்திரி	-9.96714
யர	-9.96757
ஸ்தான்	-9.96824
▁எளிதாக	-9.96846
▁குழுவின்	-9.96937
▁அரிய	-9.9701
38"	-9.97061
க்கிறார்	-9.97125
66"	-9.97156
▁அறிந்து	-9.97186
58"	-9.97205
▁ஆகியோர	-9.9728
▁வரையிலான	-9.97334
வாரி	-9.97337
▁செவ்வ	-9.97346
▁தோல்	-9.97353
▁ஐதரசன்	-9.97427
07"	-9.9746
▁நிறுவனத்தில்	-9.97514
▁சிறப்பான	-9.97542
▁போதும்	-9.97576
94"	-9.97659
ங்கே	-9.97683
▁ராக்	-9.97714
▁ஐதர	-9.97755
▁விவரிக்கப்படும்	-9.97776
▁விஷ	-9.97808
▁நடைபெற	-9.97832
43"	-9.97861
ஜீ	-9.97913
▁முடிந்த	-9.97922
▁தங்களது	-9.97923
▁செய்யப்பட்டு	-9.98018
72"	-9.98044
காலத்தில்	-9.98077
▁கோப	-9.98079
45"	-9.98158
▁சற்று	-9.98193
வைச்	-9.9822
▁ஆய்வக	-9.98264
ுகிறாள்	-9.98311
த்திற்குப்	-9.98318
சார	-9.98337
▁கோர	-9.98338
புரோ	-9.98355
▁இலங்கையில்	-9.98385
வைப்	-9.98408
பரப்பு	-9.9842
▁ஹே	-9.98503
வியா	-9.98618
▁ஆற்று	-9.98658
▁இரை	-9.98704
▁தன்ன	-9.98741
▁என்பதுடன்	-9.98742
▁நிகழ்வ	-9.98746
▁கடவுள	-9.988
னைப்	-9.988
க்களின்	-9.98824
தையும்	-9.98844
▁பாலின	-9.98871
▁கூறுகிறது	-9.98877
லிருந்து	-9.9888
▁ஜார்ஜ்	-9.98892
பகுதியில்	-9.98908
▁என்பதாகும்	-9.98951
▁சீர்	-9.98993
▁அணியில்	-9.99015
▁பேச்சு	-9.99016
▁நிர்வகிக்க	-9.99135
▁வெளியீடு	-9.99136
▁நாட்	-9.99156
பட்டு	-9.99186
வடி	-9.99201
ுக்குப்	-9.99241
37"	-9.99303
▁நட	-9.99303
வெல்	-9.9932
▁1950	-9.99326
ak	-9.99327
▁பரந்த	-9.99381
▁முயன்ற	-9.99409
▁ஆடி	-9.99432
▁திட்டமிட்ட	-9.99435
▁கிடைத்தது	-9.99436
▁தொகுதியில்	-9.99497
▁நீடித்த	-9.99521
▁காலை	-9.99663
ட்டன்	-9.99669
▁பகுப்பாய்வு	-9.99672
மங்கலம்	-9.99733
▁1984	-9.99741
நாடு	-9.9978
யாகப்	-9.99818
▁தாங்க	-9.99823
டங்க	-9.99866
▁500	-9.99872
▁மிகை	-9.99952
ங்கல்	-9.99955
16"	-9.99957
▁தரநிலை	-10.0002
89"	-10.0018
ேஸ்வர	-10.002
▁பாதிப்ப	-10.0028
▁தொடர்ப	-10.003
▁அளிப்ப	-10.0036
▁எளிய	-10.0037
▁மங்கோலிய	-10.0037
▁இறுதியாக	-10.0038
▁கொடுத்து	-10.0039
▁மேரி	-10.0042
▁சேலம்	-10.0046
[	-10.0048
த்துறையில்	-10.0048
▁நிறுவப்பட்ட	-10.0049
▁பணம்	-10.0051
றும்	-10.0052
▁அமைந்துள்ளன	-10.0053
வைத்	-10.0058
▁ஒட்டி	-10.0058
29"	-10.0059
▁வட்டார	-10.0063
▁நடித்துள்ளனர்	-10.0065
41"	-10.007
▁எழுப்ப	-10.007
ou	-10.0072
▁வடிவமைப்ப	-10.0072
to	-10.0072
▁செய்வது	-10.0076
களினால்	-10.0083
▁போட்டிகள்	-10.0084
ab	-10.0089
▁வகுப்ப	-10.009
▁வீரர்கள்	-10.0096
▁விளையாடினார்	-10.0097
▁கிர	-10.01
▁வளரும்	-10.0101
வர்களின்	-10.0101
▁இயலும்	-10.0104
▁காங்கிரசு	-10.0105
ரிக்க	-10.0106
▁தண்டனை	-10.011
▁அட்டவணை	-10.0111
▁கோர்	-10.0115
he	-10.0117
▁கூறுகிறார்	-10.0119
வர்களாக	-10.012
▁வடிவமைக்கப்பட்ட	-10.0125
▁ஒன்றில்	-10.0129
▁அதிகரிப்ப	-10.0132
▁சுற்ற	-10.0133
▁சிந்தனை	-10.0136
ச்சல்	-10.0137
▁சொத்து	-10.0138
▁சந்திக்க	-10.0146
ru	-10.0147
▁வழங்கப்பட்ட	-10.0148
▁கிறிஸ்	-10.0151
ியா	-10.0152
-2	-10.0154
▁எடுத்தார்	-10.0156
▁வழங்குகிறது	-10.0163
▁மாணவர்கள்	-10.0167
▁பிரிவில்	-10.0175
▁பாஸ்	-10.0177
இராகம்	-10.018
▁இங்குள்ள	-10.0183
ுக்க	-10.0184
▁தனக்கு	-10.0196
▁1985	-10.0199
ியின்	-10.02
▁சக்கர	-10.0201
▁நுண்ண	-10.0212
▁மதிப்பீடு	-10.0213
ொன்று	-10.0218
ொளி	-10.0221
நாதர்	-10.0222
▁பொறுப்பு	-10.0229
▁ஆக்சைடு	-10.0232
12"	-10.0235
▁வீழ்ச்சி	-10.0236
▁கதாப்பாத்திர	-10.0236
▁அணுகுமுறை	-10.0236
▁மகளிர்	-10.0236
▁கம்பி	-10.0236
40"	-10.0252
▁அல்லாத	-10.0262
pe	-10.0262
▁இதுவரை	-10.0265
ேந்திர	-10.0267
ரிமை	-10.0271
வாக்க	-10.0272
▁குடும்பத்தில்	-10.0275
▁3.	-10.0277
▁நம்	-10.0277
▁பிரான்சு	-10.0279
▁ஆடை	-10.0287
க்கட்டு	-10.0294
வரிசை	-10.0297
ற்றை	-10.03
குறி	-10.0304
▁32	-10.031
▁தரும்	-10.031
▁உள	-10.031
▁வாங்கி	-10.0312
ப்பொருள	-10.0313
பரி	-10.032
▁நடத்தப்பட்ட	-10.0323
▁80	-10.0323
நெ	-10.0329
▁பதக்க	-10.0332
▁பட்டை	-10.0334
▁ஏற்றுக்	-10.0336
வென்	-10.0337
த்தர	-10.0338
▁வாச	-10.034
▁உணர்ச்சி	-10.0342
கொண்டு	-10.0347
பெற	-10.035
ாகவே	-10.0353
▁தோழி	-10.0358
பொருள	-10.0361
ாசிரியர்	-10.0362
▁டாக்டர்	-10.0364
ப்பாட	-10.0365
பெண்	-10.0368
▁உதவுகிறது	-10.0371
யர்கள்	-10.0379
சங்க	-10.0384
ஸ்டா	-10.0386
▁சகோதரி	-10.0386
▁டிவி	-10.0387
ரம	-10.039
▁இழை	-10.0395
▁கவு	-10.0397
▁சித்திர	-10.0398
ஒழுங்க	-10.0398
ரியோ	-10.0404
▁கோடு	-10.0411
▁தொற்று	-10.0413
மனி	-10.0414
▁கோண	-10.0415
▁சர்க்கரை	-10.0416
▁இறக்க	-10.0419
▁விருதுகள்	-10.0424
தாய்	-10.0426
▁1987	-10.0427
61"	-10.0431
▁அஸ்	-10.0433
63"	-10.0433
▁1930	-10.0435
▁ஜேம்ஸ்	-10.0441
களிடமிருந்து	-10.0442
▁தோற்றம்	-10.0442
▁எதுவும்	-10.0451
▁எதிரி	-10.0451
▁மருந்த	-10.0452
▁அளவிட	-10.0455
▁மன்	-10.046
▁பரிச	-10.0463
நகர்	-10.0464
ராகவும்	-10.0464
▁கலிபோர்னியா	-10.0466
▁ரொ	-10.0468
▁ராபர்ட்	-10.0468
லைக்	-10.047
▁சிக்கலான	-10.0474
▁நாராயண	-10.0478
▁உயிரணு	-10.0482
யாளர்கள்	-10.0482
ion	-10.0489
மாநில	-10.0489
▁விநியோக	-10.0492
▁பேராசிரியர்	-10.0493
▁இணைக்கும்	-10.0493
▁திருத்தந்தை	-10.0493
▁முன்னதாக	-10.0499
▁தயாரிக்கப்பட்ட	-10.0504
சூர்	-10.0505
இந்தியா	-10.0516
▁கிரிக்கெட்	-10.0519
▁கட்டுப்பாட்டு	-10.0521
▁இடத்தை	-10.0527
▁ஃபெ	-10.0528
▁கன்னட	-10.0535
▁விளையாடிய	-10.0536
▁மிகக்	-10.0539
▁இவ்வூர	-10.0543
▁பாரசீக	-10.0543
▁தீர்வு	-10.0544
ப்பதற்காக	-10.0546
▁வண்டி	-10.0547
ாதி	-10.0549
▁கணிப்ப	-10.0559
▁திறனை	-10.0561
▁வேகமாக	-10.0561
பார	-10.0564
▁ஆயினும்	-10.057
▁எலி	-10.057
▁நீதிபதி	-10.0571
ப்படுவதில்லை	-10.0574
▁4.	-10.0575
▁தோன்றும்	-10.0576
▁வருகின்றனர்	-10.0577
▁(18	-10.0579
▁இச்சேர்ம	-10.0582
ாறு	-10.0586
ங்களைத்	-10.0587
▁முடித்த	-10.0593
ச்சை	-10.0593
▁ஏனைய	-10.0597
▁கிளா	-10.0597
▁சாரா	-10.0601
▁வெளிப்புற	-10.0601
▁வாத	-10.0605
▁பரவிய	-10.0611
▁முக்கியமாக	-10.0618
▁பகுதியாகும்	-10.0618
ran	-10.062
▁உணர்	-10.0621
▁நிலைமை	-10.0625
▁முதலீடு	-10.0625
▁திண்ம	-10.0625
ண்டே	-10.0626
▁எப்படி	-10.0628
ரிடம்	-10.0629
▁பார்த்து	-10.0631
▁உளவியல்	-10.0631
▁உரிய	-10.0634
ாக்சைடு	-10.0637
▁அறிவியல	-10.0644
க்கதை	-10.0646
▁விசாரணை	-10.0648
▁வன்	-10.065
▁விதமாக	-10.0652
▁இராஜ	-10.0653
▁வளர	-10.0654
▁இத்தாலி	-10.066
▁வெண்	-10.0662
த்தினர்	-10.0664
▁விவாத	-10.0668
▁புரிந்த	-10.0672
▁ஒன்றான	-10.0674
களாகப்	-10.0679
<	-10.0694
▁வலது	-10.0694
▁செயல்படும்	-10.0701
வதில்லை	-10.0701
▁மலர்	-10.0708
▁நகரின்	-10.0709
▁தேச	-10.0709
தாலும்	-10.071
▁உண்டாக்க	-10.0712
▁மக்களால்	-10.0714
▁விருத	-10.0719
▁தலைப்பு	-10.0719
▁எழுத்த	-10.0725
▁குழப்ப	-10.0727
ive	-10.073
▁நிலப்பரப்ப	-10.0732
▁தலைமையில்	-10.0732
▁உயரம்	-10.0737
▁1947	-10.0742
▁ஆடு	-10.0743
ெல்லாம்	-10.0745
▁உருவாக்கினார்	-10.0745
▁பிறந்தவர்	-10.0745
▁கணக்கு	-10.0749
▁இரண்டும்	-10.0752
▁இருப்பதை	-10.0753
▁புர	-10.0754
▁ஏற்பாடு	-10.0755
10"	-10.0756
ெழு	-10.0756
▁ராணி	-10.0756
all	-10.0757
▁வளர்ந்து	-10.0758
▁குற்றம்	-10.0765
▁மருத்துவம்	-10.0771
த்திறன்	-10.0772
திலும்	-10.0775
▁இயற்பியல	-10.0776
▁கட்டுமான	-10.0777
▁ரோம	-10.0779
மெத்தில்	-10.0781
▁உணர்ந்த	-10.0783
▁உடலில்	-10.0785
க்காடு	-10.0789
▁மற	-10.079
▁மத்தியில்	-10.0791
▁சான்	-10.0792
▁பழமையான	-10.0793
ஷ்ட	-10.0796
செயல்	-10.0797
வுட்	-10.0798
பாட்டை	-10.0802
ியலாளர்	-10.0811
ப்பட்டி	-10.0812
ப்படுத்தும்	-10.0815
▁பட்டு	-10.0831
▁இனப்பெருக்க	-10.0835
▁கொண்டிருக்கிறது	-10.0837
▁மூட	-10.0841
res	-10.0844
பர்ட்	-10.0845
▁இனி	-10.0846
லாக்	-10.0848
ரோன்	-10.0848
▁மான்	-10.0856
▁நிறத்தில்	-10.0863
▁மரப	-10.0865
க்கூ	-10.0871
ுகிற	-10.0873
டையும்	-10.0877
▁ஆப்பிரிக்க	-10.0877
▁கோள்	-10.0878
ளிக்கும்	-10.0882
▁இயக்கிய	-10.0884
▁காணப்பட்ட	-10.0886
▁யாழ்ப்பாண	-10.0887
▁இடம்பெற	-10.0889
▁எதிர்மறை	-10.0889
▁தாம்	-10.0893
▁தெளிவாக	-10.0903
▁பங்கேற்ற	-10.0904
▁நாட்டுப்	-10.0907
சரி	-10.0909
▁காதல	-10.0911
▁காப்பாற்ற	-10.0915
நாதன்	-10.0917
▁எளிதில	-10.0923
▁90	-10.0924
ும்படி	-10.0926
ஹீ	-10.0935
▁உண்ண	-10.0936
ட்டிக்	-10.094
ிக்கும்	-10.0941
குல	-10.0944
▁நிகழ்த்த	-10.0944
▁தெரு	-10.0945
ங்களுக்கான	-10.0947
▁ஏர்	-10.0947
▁மரம்	-10.095
▁உயிரணுக்கள	-10.0953
▁மாற்றிய	-10.0961
▁ஆலோசனை	-10.0968
ரியல்	-10.0972
▁St	-10.0975
க்கரை	-10.0976
▁சைவ	-10.0976
▁துவங்கி	-10.0977
▁செயல்பட்ட	-10.0977
▁முறையே	-10.0983
▁அறிவித்த	-10.0983
du	-10.0983
▁அனைவரும்	-10.0987
▁இப்படி	-10.0994
மயமாக்க	-10.0998
▁மார்ச்சு	-10.0998
▁தொல்	-10.1003
▁ஹார்	-10.1005
லானது	-10.1007
▁தூபி	-10.1019
▁பெற்றுள்ளது	-10.1023
▁வருமான	-10.1024
▁சியா	-10.1024
▁புராண	-10.1024
▁சன்	-10.1026
ுகையில்	-10.103
ளின்	-10.1031
டியம்	-10.1037
▁நாளில்	-10.1038
▁கற்ற	-10.1043
▁விளையாடி	-10.1043
▁அடிமை	-10.1045
யொ	-10.1046
▁இவற்ற	-10.1049
▁வெளிவந்தது	-10.105
▁ஒட்டுமொத்த	-10.105
▁அணுக்கரு	-10.1054
ழுத்த	-10.1054
▁ஒப்பிட	-10.1055
▁கிடைக்கிறது	-10.1055
ளோ	-10.1059
ap	-10.1062
ேசன்	-10.1063
▁தொடக்கத்தில்	-10.1064
நாள்	-10.107
▁ஆய்வாளர்	-10.1073
வியல	-10.1073
த்திட்ட	-10.1076
ிருப்பது	-10.1078
▁தூய்மை	-10.108
▁செய்வதற்கு	-10.108
▁புவியியல்	-10.1081
▁ஆனாலும்	-10.1081
▁என்றழைக்க	-10.1081
NA	-10.1086
▁ஓடு	-10.1093
▁தண்ட	-10.1099
▁தண்ணீர்	-10.1101
▁இணைக்க	-10.1104
▁நொ	-10.1105
▁வித்தியாச	-10.1108
திறன்	-10.1111
▁இறந்து	-10.1113
ca	-10.1113
▁காதலி	-10.1115
▁தீர்ப்ப	-10.112
▁குவா	-10.1124
▁இராச்சியத்தின்	-10.1131
▁வலைத்தள	-10.1133
▁டச்சு	-10.114
▁அணுக்கள	-10.1144
100	-10.1145
▁குளோ	-10.1153
ite	-10.1158
▁35	-10.1161
▁காங்கிரஸ்	-10.117
▁ஆத்திரேலிய	-10.1171
னன்	-10.1176
▁மார்க்	-10.1176
பழ	-10.1178
▁பெற்றுள்ளார்	-10.1184
களுக்க	-10.1186
கும்	-10.1189
கிருஷ்ண	-10.119
▁போதுமான	-10.1193
ழக	-10.1201
▁வந்தனர்	-10.1203
tic	-10.1204
▁பத்திர	-10.1206
▁அருங்காட்சியக	-10.1207
ஜே	-10.121
ver	-10.1214
ாம	-10.1216
▁குறியீட்ட	-10.1217
சனின்	-10.1217
ant	-10.1217
▁விளங்கியது	-10.1219
▁தீர்மான	-10.1223
▁கோள	-10.1223
▁வானியல	-10.123
▁நிகழ்வுகள்	-10.123
வர்களை	-10.123
▁ஆர்வம்	-10.1232
po	-10.1235
▁வாழ்க்கையை	-10.1236
▁குழி	-10.1237
த்திரை	-10.1237
யிட்ட	-10.1241
▁வரையில்	-10.1243
▁தலைமையிலான	-10.1247
▁வீட்டில்	-10.1247
ட்டே	-10.1247
▁வசூல	-10.1248
▁அழுத்தம்	-10.1251
▁இலிருந்து	-10.1259
▁ஆகவும்	-10.126
டைகிறது	-10.1264
▁அம்ச	-10.1266
▁பண்ணை	-10.1272
▁போராட	-10.1275
ஃபோர்	-10.1278
ாய்வு	-10.1279
▁X	-10.1279
பட்டி	-10.1279
▁நினைவ	-10.1279
ங்கில்	-10.128
▁எதிர்மின்	-10.128
▁தேவைப்படும்	-10.1281
▁நடித்து	-10.1282
▁செல்கிறது	-10.1284
மடை	-10.1284
குளோரோ	-10.1285
▁இந்	-10.1286
▁அழக	-10.1294
▁எதிர்பார்க்க	-10.1302
மறை	-10.1304
▁கழகத்தில்	-10.1308
▁தெளி	-10.1312
▁கர்நாடக	-10.1314
▁Ch	-10.1324
ச்சேரி	-10.1327
அவனது	-10.1328
▁நீர்ம	-10.1329
▁நீரை	-10.1332
▁இராச	-10.1332
▁நவ	-10.1335
வையாகும்	-10.1336
▁1988	-10.1343
▁தர்ம	-10.135
▁இழப்பு	-10.1351
▁காவல்துறை	-10.1352
▁தீவுகள்	-10.1354
▁கால்பந்து	-10.1358
▁அரசியல	-10.1363
▁ஆரம்பித்த	-10.1366
▁இடைநிலை	-10.1369
mo	-10.1371
▁சுவை	-10.138
▁தொடர்ச்சியாக	-10.1381
▁திருச்சி	-10.1383
சக்தி	-10.1386
▁விரைவாக	-10.1388
ang	-10.1389
▁ஆசிரியராக	-10.1389
ஞ்ச்	-10.1394
2)	-10.1399
▁காலகட்டத்தில்	-10.14
▁கலி	-10.1406
▁முடிவில்	-10.1408
ve	-10.141
ெடுப்ப	-10.1413
▁தரவரிசை	-10.1417
▁வழங்கியது	-10.1421
▁கிளி	-10.1427
▁1982	-10.1428
▁பொருளை	-10.143
▁சிவன்	-10.1432
▁அறிவித்தது	-10.1437
▁துருவ	-10.1437
▁அபி	-10.144
▁எப்போதும்	-10.1441
▁பணியாற்ற	-10.1444
▁மாறியது	-10.1446
▁கட்டப்பட்டது	-10.1449
ார	-10.1451
▁கேட்டு	-10.1456
▁தொடரின்	-10.1457
▁மெர்	-10.146
▁அம்மன்	-10.1466
▁தொலைபேசி	-10.147
▁தேடி	-10.147
▁சூட்ட	-10.1475
நாத்	-10.1479
▁கட்டிடக்கலை	-10.1484
மிக்	-10.1488
துடன்	-10.1495
yl	-10.1498
▁சான்ற	-10.15
▁அவர	-10.1503
டைந்த	-10.1504
▁எதிர்த்து	-10.1507
▁பிரபு	-10.1507
▁குழுவில்	-10.151
▁1971	-10.1512
லான்	-10.1514
▁கடற்	-10.1519
▁எச்	-10.1524
▁அமைப்பில்	-10.1527
▁நடிப்ப	-10.1527
▁பெரிதும்	-10.1527
▁டெட்ரா	-10.1535
▁பிரான்ச	-10.1535
▁கொண்டுவர	-10.1537
▁வண்ணம்	-10.1539
▁பணிபுரிந்த	-10.1542
▁துகள்	-10.1543
பிக்	-10.1548
▁சமநிலை	-10.155
▁இனம்	-10.1554
▁கொடுக்கப்பட்ட	-10.1555
ka	-10.1566
எச்	-10.1575
ருவி	-10.1582
▁முக்கோண	-10.1584
▁பயன்பட	-10.1585
▁நன்மை	-10.1588
▁பண்ப	-10.1589
▁கட்டுப்பாட்டில்	-10.16
▁தலைவன்	-10.1601
▁பந்த	-10.1602
▁துணைக்	-10.1604
▁°	-10.1605
▁அவரின்	-10.1606
▁பறவைகள்	-10.1606
ோம்	-10.1606
▁எதிர்ப்ப	-10.1609
ின்படி	-10.1613
▁உடனடியாக	-10.1613
வராகவும்	-10.1616
தேவ	-10.1617
▁Ma	-10.1617
லியோ	-10.1619
ுறுப்பு	-10.1621
கால்	-10.1623
டிங்	-10.1623
▁பசு	-10.1625
▁சாய்	-10.1629
கோள	-10.1632
▁அறிகுறிகள்	-10.1634
▁விக்கி	-10.1636
ியர்	-10.1637
ஜன	-10.1639
யியல	-10.1642
மையாக	-10.1647
ாசிரியர	-10.1648
படும்	-10.165
▁பரப்பளவு	-10.1651
ராம	-10.1653
▁கவி	-10.1655
▁நிகழ்ச்சியில்	-10.1656
▁இடது	-10.1658
ஜோ	-10.1658
ge	-10.1659
▁தெரிவித்தார்	-10.1664
▁தனிநபர்	-10.1671
▁பத்திரிக்கை	-10.1671
▁நடிகர	-10.1671
▁இந்நூல	-10.1672
▁கட்டமைப்ப	-10.1674
▁இப்படம்	-10.1674
▁விளங்குகிறது	-10.1679
mi	-10.1681
த்துப்	-10.1684
▁கார்பன	-10.1686
▁ஆங்கிலத்தில்	-10.1686
▁குடியரசுத்	-10.1688
▁டெக்	-10.169
▁ஸ்டா	-10.1699
▁ஆக்சிசனேற்ற	-10.17
▁சொல்லி	-10.1702
புல்	-10.1703
சிஸ்	-10.1708
▁பணிகள்	-10.1714
▁”	-10.1726
வராவார்	-10.1732
▁நினைவாக	-10.1733
▁1940	-10.1736
▁பிரதேசம்	-10.1739
▁மரியா	-10.174
கிரீ	-10.1747
▁ஏற்படுத்தும்	-10.1748
தேவி	-10.176
▁உயர்த்த	-10.1761
ெண்	-10.1762
▁உபயோக	-10.1765
▁சேர்மம்	-10.1767
▁காலி	-10.1769
▁உண்டா	-10.1773
▁தீர்த்த	-10.1774
▁தாக்கி	-10.1783
▁ரு	-10.1785
மண்டப	-10.1787
▁சமிக்ஞை	-10.1788
▁கம்பெனி	-10.1788
▁சதவிகித	-10.1788
▁மின்னணு	-10.179
கிற	-10.1792
▁பழங்குடி	-10.1802
▁கற்பனை	-10.1804
▁கோடை	-10.181
ென்ற	-10.1819
லியன்	-10.1822
▁எழுந்த	-10.1823
ாக்கம்	-10.1827
▁செயல்திறன்	-10.1832
▁அழகிய	-10.1841
பிறகு	-10.1845
சிங்க	-10.185
▁காய்	-10.185
பாட்டு	-10.1852
▁பகுதியின்	-10.1857
▁1977	-10.1866
▁கவிஞர்	-10.1867
ட்டுகள்	-10.1868
மண்டல	-10.1869
▁பட்டியல	-10.1872
பெயர்	-10.1872
▁பாசு	-10.1876
▁வீழ்த்த	-10.1878
▁அழைக்கப்பட	-10.1884
▁இலக்குகளை	-10.1886
முற்ற	-10.1889
▁அம்ம	-10.1901
தைக்	-10.1906
ப்படுகின்ற	-10.1906
▁பழுப்பு	-10.1907
ical	-10.1907
▁என்பதோடு	-10.191
ப்பாதை	-10.191
▁நடைபெறுகிறது	-10.1912
▁நச்சு	-10.1914
க்கார	-10.1914
▁இந்தியக்	-10.1916
▁நூல்களை	-10.1918
ங்கர்	-10.1922
பான	-10.1926
பெல்	-10.1926
▁புதை	-10.1929
▁70	-10.1933
▁ஒதுக்க	-10.1933
tt	-10.1934
▁மகிழ்ச்சி	-10.1937
▁என்பவை	-10.1937
der	-10.1948
▁உள்ளே	-10.195
▁1983	-10.1951
கிறார்கள்	-10.1951
▁குன்ற	-10.1953
▁பிரெ	-10.1953
நோய்	-10.1959
▁நண்ப	-10.1963
▁சாலையில்	-10.1964
▁கட்டண	-10.1965
▁சீர்திருத்த	-10.1967
▁மோசமான	-10.1967
▁அண்மை	-10.1967
வெப்ப	-10.1968
ium	-10.1971
▁மாணவ	-10.1978
▁மாற்றங்கள்	-10.1981
சாலை	-10.1986
▁செய்யப்பட்டார்	-10.1988
ex	-10.1994
ங்களாகும்	-10.1995
▁ஏற்கனவே	-10.1997
ction	-10.1999
ாற்றல்	-10.2011
▁இங்கே	-10.2012
▁அவ்வாறு	-10.2015
per	-10.202
▁ஆஸ்	-10.2022
▁இன்றும்	-10.2026
▁அறக்கட்டளை	-10.2027
▁இளைஞர்	-10.2027
சம	-10.2031
▁1978	-10.2042
▁to	-10.2045
▁பணியாற்றி	-10.2045
விஸ்	-10.2054
ment	-10.2057
ber	-10.2059
▁சீக்கிய	-10.2065
விழா	-10.2068
▁நிறுவிய	-10.207
▁1979	-10.2074
மினி	-10.2078
▁பிரதிநிதித்துவ	-10.2088
▁அமைத்து	-10.2092
▁பெய்	-10.2092
▁சார்பு	-10.2096
▁உருவாக்குகிறது	-10.2101
▁உறுப்பினர	-10.2101
▁நெறி	-10.2106
▁அப்ப	-10.2106
▁உலர்	-10.2115
ஹோ	-10.2121
▁பற்றியும்	-10.2122
▁அழைக்கப்பட்டது	-10.2122
▁இலாப	-10.2123
ப்பொ	-10.213
பிட்	-10.2134
▁காண்ப	-10.2135
▁பணியில்	-10.2143
▁திற	-10.2143
▁தனிம	-10.2145
லார்	-10.2148
▁வழங்கப்படுகிறது	-10.2148
▁ஒருவராக	-10.2155
▁ஜு	-10.2157
▁வாடிக்கையாளர்	-10.2161
▁பிரிக்கப்பட்ட	-10.2167
▁கூர்	-10.2167
▁1972	-10.2169
ங்களிலிருந்து	-10.2172
பிற	-10.2176
▁பிரச்சனை	-10.2179
▁ஊட்டச்சத்து	-10.2179
▁புனை	-10.2181
▁அன்ன	-10.2183
ப்பெயர	-10.2183
▁வளர்ப்பு	-10.2184
ill	-10.2193
▁அறு	-10.2193
கோபால	-10.2195
க்கால்	-10.2196
▁நிறம்	-10.2196
குரு	-10.2197
▁விலக்க	-10.2197
▁அரபு	-10.2198
▁மலைத்தொடர	-10.2203
▁அசோ	-10.2209
▁மற்றவர்	-10.2215
▁அமைந்திருந்த	-10.2216
▁கடினமான	-10.2217
▁பிளே	-10.2222
▁ஆகவே	-10.2223
▁நிலைக்கு	-10.2231
▁n	-10.2232
▁படைத்த	-10.2235
▁பயன்படுத்திய	-10.2235
▁டன்	-10.2235
▁கடின	-10.2237
▁படங்களில்	-10.2239
▁இஸ்லாமிய	-10.224
▁என்பதற்கு	-10.2244
ேசுவர	-10.2245
▁வேதியியல	-10.225
▁பயின்ற	-10.2251
▁தூய	-10.2251
▁மொழிகளில்	-10.2254
▁கண்டி	-10.2257
▁அமர	-10.2259
da	-10.226
விடம்	-10.2261
▁அவனை	-10.2264
▁இலட்ச	-10.2264
லீன்	-10.2265
▁காலத்திற்கு	-10.2266
▁கிரே	-10.2269
▁மேற்கொள்ளப்பட்ட	-10.2272
சம்ப	-10.2273
▁கொண்டவை	-10.2278
▁கண்டறி	-10.2284
▁கைப்பற்றினார்	-10.2284
▁ஆங்கிலேயர்	-10.2287
▁தலைமுறை	-10.2293
▁ஹார்ட்	-10.2295
▁குறிப்பிடுகிறது	-10.2297
ac	-10.2304
▁எஞ்சிய	-10.2304
ரியன்	-10.2305
▁பன்றி	-10.2313
மோர்	-10.2316
▁பிக்	-10.2316
ிருப்பதாக	-10.2321
▁கருவிகள்	-10.2326
▁தனித்தனி	-10.2328
▁ஈழ	-10.2329
▁காட்டி	-10.2331
▁ஏராளமான	-10.2333
▁தளர்ச்சி	-10.2333
▁இன்றைய	-10.2333
▁குடியேற்ற	-10.2333
ஞ்சா	-10.2336
▁இடையிலான	-10.2336
ிருந்தாலும்	-10.2337
▁மூன்ற	-10.2338
டூ	-10.234
▁தோன்றி	-10.2344
▁சவு	-10.2344
▁நாவல	-10.2352
▁நிகழும்	-10.2354
▁தயாரிப்பாளர்	-10.2354
ண்ணா	-10.2355
500	-10.2356
▁முடிந்தது	-10.2356
han	-10.2357
தேச	-10.2363
▁சிக்கல	-10.2363
▁ஜனதா	-10.2365
▁அபாய	-10.2367
ம்பர	-10.2368
▁தண்ணீர	-10.2369
▁1957	-10.2377
▁கடித	-10.2377
▁ஆற்றலை	-10.2379
▁சகோதர	-10.2382
ஞர்	-10.2383
▁சும	-10.2383
▁குடியிருப்பு	-10.2385
▁விரைவில்	-10.2395
▁திரைக்கதை	-10.2397
▁விலக	-10.2397
▁இந்நிலை	-10.24
▁சுரங்களும்	-10.2402
▁பிற்பகுதியில்	-10.2403
போதும்	-10.2404
நீர	-10.2408
ுபவை	-10.2409
▁கற்பி	-10.2409
சீன்	-10.2411
▁சரியாக	-10.2412
இர	-10.2414
▁கற்ப	-10.2416
முத	-10.2419
ஷே	-10.2423
▁நூறு	-10.2424
▁வீசி	-10.2426
▁படப்பிடிப்பு	-10.2427
▁கழ	-10.2428
▁சிக்கி	-10.2429
▁பிராந்திய	-10.2429
கொள்கின்றன	-10.2435
▁வாட்	-10.2436
▁நிரல்	-10.2437
ke	-10.2439
▁குடியரசு	-10.2441
▁சந்திப்ப	-10.2445
புல	-10.2456
▁கொல்கத்தா	-10.2458
▁மருந்துகள்	-10.2458
▁அரசியலமைப்பு	-10.2459
▁தென்னிந்திய	-10.246
▁அடிப்படையிலான	-10.2462
▁க்கும்	-10.2462
▁இந்துக்	-10.2464
களுக்கிடையே	-10.2468
▁நிரப்ப	-10.2468
▁1969	-10.2474
ுவார்கள்	-10.2478
காட்டி	-10.2484
▁உறுதிப்படுத்த	-10.2486
art	-10.2486
ath	-10.2487
▁உருவாக	-10.2488
▁முற்றிலும்	-10.249
▁இடைப்பட்ட	-10.2494
▁அச்சிட	-10.2494
▁கல்ல	-10.2496
▁கட்டுப்பாட்ட	-10.2502
▁ஆண்டுகளாக	-10.2504
▁பெரும	-10.2507
ஊ	-10.2509
▁பேசும்	-10.2511
நைட்ர	-10.2512
▁இவ்வினை	-10.2512
▁வெங்கட	-10.2512
▁மணிக்கு	-10.2514
▁டார்	-10.2515
▁தீர்மானிக்க	-10.2516
▁இசைக்குழு	-10.2516
▁தேவாலய	-10.2521
▁கிரிக்கட்	-10.2521
▁கழிவு	-10.2521
3-	-10.2523
▁தவ	-10.2524
▁ஸ்ட்ர	-10.2525
தனால்	-10.2527
▁சில்ல	-10.2528
▁உரிமைகள்	-10.2528
▁கற்றல்	-10.2528
ியக்க	-10.2529
ராஜா	-10.253
▁சேர்க்கப்பட்ட	-10.2535
▁சுவர்	-10.2538
▁செய்யப்பட	-10.2538
டியோ	-10.2542
▁இயங்கி	-10.255
▁45	-10.2551
▁அழைத்த	-10.2552
கோண	-10.2552
▁அனுப்பி	-10.2553
▁இன்னொரு	-10.2553
▁மேற்கத்திய	-10.2553
▁இந்நூல்	-10.2554
▁அதிகபட்ச	-10.256
பத	-10.2564
▁படைகளை	-10.2566
▁1962	-10.2567
▁1964	-10.2569
▁ஃபா	-10.2573
யடைந்த	-10.2575
▁என்றார்	-10.2575
▁என்பர்	-10.2578
▁நிறுவனங்கள	-10.2591
▁எர்	-10.2594
ஸ்தான	-10.2597
wa	-10.2598
இரு	-10.2599
▁அவசிய	-10.26
▁The	-10.2604
▁நெடு	-10.2611
▁ஜெய்	-10.2611
▁ஜெர்மானியப்	-10.2614
▁புதிதாக	-10.2619
▁பிழை	-10.2625
க்கட்ட	-10.2626
▁படிப்ப	-10.2629
ராச	-10.2634
ரீதியான	-10.2641
மிகு	-10.2644
ிறக்க	-10.2644
யாத	-10.2648
▁ஹென்றி	-10.2649
▁அங்கத்தினர்	-10.265
▁தடுப்பு	-10.2652
▁அரசாங்கம்	-10.2655
▁தன	-10.2659
த்தள	-10.2659
▁சுரப்பி	-10.2661
▁பண்பாட்டு	-10.2671
▁பெரும்பான்மை	-10.2674
▁அமைய	-10.2683
சேர்	-10.2684
▁தனித்த	-10.2687
▁கூடு	-10.2687
▁வழிபாடு	-10.2689
▁லட்ச	-10.2689
con	-10.2692
▁சுவாச	-10.2695
▁உச்சி	-10.2699
வதற்கான	-10.27
▁தீர்க்க	-10.2701
▁மெல்ல	-10.2711
▁இயங்கும்	-10.2711
▁ஒருங்கிணைந்த	-10.2713
▁இறந்தார்	-10.2715
▁மூலதன	-10.2717
▁வன்முறை	-10.2718
கோவில்	-10.2719
ers	-10.2721
▁CH	-10.2735
திற	-10.2743
▁சுற்றுப்பயண	-10.2746
▁ரசிகர்	-10.2746
செல்ல	-10.2746
▁கொண்டவர்	-10.2746
▁கடமை	-10.275
▁முடியவில்லை	-10.2752
▁ஆய்	-10.276
tion	-10.2762
▁பெருமாள்	-10.2767
▁முதன்முதலில்	-10.2778
▁ஆளுமை	-10.2779
க்கூடியது	-10.2783
ப்பட்டிருந்தது	-10.279
▁பேராசிரியராக	-10.2791
▁அசா	-10.2792
▁என்பதே	-10.2793
ிறான்	-10.2793
▁ஷி	-10.2794
▁படிப்பை	-10.2811
▁நிலநடுக்க	-10.2811
ெழுத்து	-10.2811
▁பெறப்பட்ட	-10.282
▁குறைந்தது	-10.2823
▁பயின்றார்	-10.2824
▁டூ	-10.2825
▁வீத	-10.2828
▁கழகத்தின்	-10.284
▁பயன்பாட்டு	-10.2845
▁சார்பாக	-10.2846
▁அப்படி	-10.2853
▁நிறுவினார்	-10.2855
▁சேர்மங்கள்	-10.2859
▁1973	-10.2861
ud	-10.2863
▁முப்ப	-10.2865
▁பசுமை	-10.2872
▁இவன	-10.2873
▁மைக்கேல்	-10.2876
▁ஆதரிக்க	-10.2877
▁நீட்டி	-10.2879
▁நோபல்	-10.288
▁முன்பாக	-10.288
▁ராம்	-10.2881
ect	-10.2882
▁தாக்குதல	-10.2885
▁கணக்கில்	-10.2896
▁படிப்பு	-10.2901
▁வெகு	-10.2901
▁பாண்ட	-10.2904
▁போற்ற	-10.2905
ொலி	-10.2905
▁கோரிக்கை	-10.2909
பாடி	-10.2913
படுத்தி	-10.2914
செய்வத	-10.2917
pa	-10.2917
▁வீச	-10.2921
சேகர	-10.2921
▁1967	-10.2924
▁கரைசல	-10.2926
நாயக்க	-10.2936
▁பங்களிப்பு	-10.2939
▁பருவத்தில்	-10.2941
▁பொட்டாசியம்	-10.2942
▁புதுக்கோட்டை	-10.2944
▁குழுக்கள்	-10.2954
▁தாயார்	-10.2955
நு	-10.2956
▁நபர	-10.296
வலி	-10.2961
▁வலிமையான	-10.2962
ுதலை	-10.2963
பேசி	-10.2963
▁வழங்கப்படும்	-10.2964
▁பாத	-10.2968
▁முடிவுகள்	-10.297
▁ஒன்றியம்	-10.2973
▁உடன்படிக்கை	-10.2975
▁படிநிலை	-10.2979
▁தாவரங்கள்	-10.2988
▁ஃப்ர	-10.2988
ந்தே	-10.2996
▁நல்	-10.2997
▁உழ	-10.2997
▁பெட்டி	-10.3
▁Re	-10.3003
▁அடங்க	-10.301
▁உட்புற	-10.3011
▁கழித்து	-10.3014
நோக்கி	-10.3017
▁சான்று	-10.3019
tra	-10.3027
கினி	-10.3028
▁உன்	-10.3031
களிலேயே	-10.3037
▁விமர்சகர்	-10.3042
வருகிறது	-10.3045
▁கருதி	-10.3047
▁சார	-10.3051
ya	-10.3056
ாளராகவும்	-10.3058
ary	-10.3059
▁சுற்றுச்சூழல்	-10.3063
▁நினைத்த	-10.3065
▁துளை	-10.3065
▁சுழல	-10.3066
மீட்டர்	-10.3069
▁ஆண்டி	-10.3071
▁பில்லியன்	-10.3076
▁நிறை	-10.3081
▁ரீதியான	-10.3083
▁சிங்கப்பூர	-10.3085
லிங்கம்	-10.309
▁1976	-10.3095
▁திசு	-10.31
▁கிழக்கிந்திய	-10.3109
▁சாம்பல்	-10.3109
▁இயலாத	-10.3115
▁Na	-10.3129
▁300	-10.3133
▁ஸ்டார்	-10.3141
▁ராவ்	-10.3143
▁அதிகாரப்பூர்வ	-10.3144
ப்பட்டிருக்கும்	-10.3145
பக்க	-10.3148
▁முத்திரை	-10.3151
▁மையத்தில்	-10.3154
வட	-10.3157
har	-10.3158
▁ஆணை	-10.3161
னிடம்	-10.3162
▁துவக்கத்தில்	-10.3171
ஸ்டன்	-10.3173
▁ரகு	-10.3174
▁இசையமைத்த	-10.3176
▁நிரந்தர	-10.3176
▁சமயங்களில்	-10.3179
▁தாமிர	-10.3179
▁பாட்டி	-10.3181
▁ஓட	-10.3192
▁கந்தக	-10.3193
▁குறைந்து	-10.3203
▁இடர்	-10.3207
▁திருநெல்வேலி	-10.321
▁தரம்	-10.3212
▁அரேபிய	-10.3213
▁பார்வையாளர்	-10.3214
▁ஆபத்து	-10.3214
▁எரு	-10.3222
களானது	-10.3231
▁யூத	-10.3231
▁விரும்பி	-10.3233
lu	-10.3234
▁விளைவுகளை	-10.3236
▁அறியப்படும்	-10.3242
▁ஆகியவற்றைக்	-10.3243
▁பாராளுமன்ற	-10.3244
▁செயல்பட்டு	-10.3244
▁ஏற்றுமதி	-10.3245
வாதம்	-10.3249
▁ஐரோப்பாவில்	-10.3254
▁கற்றுக்	-10.3255
▁தன்மையை	-10.3257
▁அறிவித்தார்	-10.3262
▁மனத்	-10.3264
▁சேவைகள்	-10.3265
க்டர்	-10.3269
be	-10.3277
▁கண்காணிப்ப	-10.3278
▁ஐதராபாத்	-10.3279
லியம்	-10.3279
▁உறிஞ்ச	-10.3281
▁பாடசாலை	-10.3281
▁எனப்படுகிறது	-10.3282
▁காத்த	-10.3289
▁துறையின்	-10.3301
▁கொண்டனர்	-10.3306
▁ஒழுங்கு	-10.3308
-3	-10.3308
▁இளங்கலை	-10.3312
▁கையெழுத்த	-10.3314
பேர	-10.3315
க்குடி	-10.3316
▁நூலில்	-10.3318
▁விளைவுகள்	-10.3318
▁இம்முறை	-10.3322
ுவதற்கும்	-10.333
▁1975	-10.3335
est	-10.3336
▁அவர்களால்	-10.3337
▁காண்க	-10.3345
▁தொல்காப்பிய	-10.3347
▁சன்னதி	-10.3347
▁ஒளிப்பதிவ	-10.3348
▁விளைவிக்க	-10.3351
▁தொடங்கப்பட்டது	-10.3352
▁கைப்பற்றிய	-10.3359
றிவு	-10.3361
▁தங்கி	-10.3365
▁புகழ	-10.3365
▁1945	-10.3366
▁விளையாட்டுக்	-10.337
▁இறப்ப	-10.337
▁செய்தல்	-10.3372
சால்	-10.3381
▁பண்பாடு	-10.3381
▁முகமது	-10.3382
▁ஆட்	-10.3382
ப்படுத்திய	-10.3383
▁அழகு	-10.3383
▁மாற்றப்பட்டது	-10.3385
▁அருவி	-10.3395
▁கல்வியை	-10.34
▁எடுத்துச்	-10.3409
▁ஊழியர்	-10.3416
▁பெருமளவில்	-10.3417
▁சூழல	-10.3417
▁சர்ச்சை	-10.3418
▁கேரளா	-10.342
புளோரோ	-10.3421
▁மீள	-10.3422
தீன்	-10.3423
▁நாடுகளுக்கு	-10.3424
▁de	-10.3428
▁or	-10.3432
▁ஆலயம்	-10.3433
▁1974	-10.3434
போர்டு	-10.344
▁மகிழ	-10.345
▁ஐந்தாவது	-10.3451
▁குஜராத்	-10.3452
ாபாத்	-10.3452
▁பிராமண	-10.3453
க்கருவி	-10.3457
▁உடற்	-10.3459
▁முறையான	-10.3461
▁வெப்பநிலையில்	-10.3461
▁w	-10.3475
நான்	-10.3476
▁விளையாட்டுப்	-10.3476
▁போக	-10.3478
▁குடியேறி	-10.3478
▁விநாயகர்	-10.3486
▁உயிரினங்கள	-10.3492
▁ஸ்டோ	-10.3497
▁குமார	-10.3502
▁ஆட்சியின்	-10.3506
▁நடந்தது	-10.3507
▁நிற்க	-10.3509
ஜு	-10.3509
வதற்காக	-10.3514
▁தயாரிப்பில்	-10.3518
▁வழக்கறிஞர	-10.352
▁வியாபார	-10.3521
▁வேட்பாளர	-10.3521
▁நன்றாக	-10.3521
▁ஆழ்	-10.3522
▁வடிவத்தில்	-10.353
tri	-10.3531
▁நிக்கல்	-10.3533
▁தோன்றினார்	-10.3534
▁பொன்	-10.3538
▁நம்பப்படுகிறது	-10.3543
▁நடக்கும்	-10.3545
லோக	-10.3545
▁ஆலி	-10.3546
▁சேர்ந்தது	-10.3547
▁நடுவில்	-10.355
▁என்பதன்	-10.3552
றுத்த	-10.3553
▁ஆல்பம்	-10.3558
ron	-10.3563
ஃபெ	-10.3565
▁இருந்தபோது	-10.3567
▁இப்பகுதியில்	-10.3568
போன்ற	-10.3584
காலம்	-10.3584
son	-10.3585
▁ஈடுபட்டு	-10.3585
▁தலைவராகவும்	-10.3587
▁கௌ	-10.3589
▁வழக்கம்	-10.3591
▁தனியாக	-10.3594
றாக	-10.3596
▁கிழக்க	-10.3596
▁அமைகிறது	-10.3597
சிங்	-10.3599
ங்களைச்	-10.3602
▁இழப்ப	-10.3603
▁1952	-10.3609
▁1981	-10.3615
▁நரம்ப	-10.3615
▁கொண்டிருந்தார்	-10.3615
▁சிதற	-10.3616
கிரக	-10.3616
▁நோக்கம்	-10.3617
▁ஹூ	-10.3617
▁சிங்கப்பூர்	-10.3617
▁நடக்க	-10.3624
▁விருதினை	-10.3629
டோன்	-10.3632
▁எசு	-10.3634
பந்தாட்ட	-10.3635
மெண்ட்	-10.3643
▁In	-10.3646
▁ஆற்றல	-10.3649
Al	-10.3651
▁கடும்	-10.3652
▁தள்ள	-10.3655
▁மேம்பாட்டு	-10.366
▁காகித	-10.3661
▁கல்வியறிவு	-10.3662
▁மலாக்கா	-10.3662
▁இக்கிராம	-10.3662
▁குளிர்கால	-10.3664
லுடன்	-10.3664
▁ஈட்ட	-10.3667
▁கோப்பு	-10.367
போர்ட்	-10.3671
ின்றார்	-10.3676
▁இதைப்	-10.3676
▁1963	-10.3677
▁பத்ம	-10.3678
▁நின்று	-10.368
▁பௌ	-10.368
▁பெருங்கடல	-10.3682
▁1948	-10.3682
▁என்பதையும்	-10.3683
▁செயற்	-10.3684
▁முதலாக	-10.3685
▁மேற்குப்	-10.3686
முதல்	-10.3686
▁உதாரண	-10.3694
▁ஆயிரம்	-10.3697
▁பராமரிப்ப	-10.3697
▁தற்காலிக	-10.3697
வேண்டிய	-10.3707
க்ரோ	-10.3708
age	-10.3708
▁இருப்பு	-10.3709
வெண்	-10.371
▁நிறுத்தி	-10.3712
▁நிறைய	-10.3714
▁படித்து	-10.3716
▁முடிவுக்கு	-10.3716
▁வென்றது	-10.3716
▁பகுதியான	-10.372
▁விரிவான	-10.3722
▁பாவ	-10.3726
▁கடுமையாக	-10.3733
▁பொம்மை	-10.3735
▁கொள்ளலாம்	-10.374
▁பீட்டர்	-10.3743
▁இக்கோயிலில்	-10.3745
ard	-10.3745
மையால்	-10.3747
ep	-10.3754
▁செயல்பாட்ட	-10.3755
▁அம்மா	-10.3757
ரேட்	-10.3759
▁தண்டு	-10.3759
▁ஆகையால்	-10.3769
▁இப்படத்தில்	-10.3769
▁அஞ்சல்	-10.3769
னையும்	-10.377
▁கலப்பு	-10.3775
▁உரோம	-10.3775
கீழ்	-10.3778
ஆக	-10.3783
▁ஹு	-10.3786
▁நடுநிலை	-10.3787
▁இதுவும்	-10.3788
▁முன்பே	-10.3794
பற	-10.3794
▁உரிம	-10.3799
▁தெரிவு	-10.3799
▁வெட்ட	-10.3801
ட்டீ	-10.3802
▁பாலைவன	-10.3805
▁Ba	-10.3807
▁அப்துல்	-10.3808
▁மேன்	-10.3808
ஹைட்ர	-10.3809
▁அரசன்	-10.381
கிறேன்	-10.3812
▁முடிகிறது	-10.3814
▁அறிமுகம்	-10.3815
▁அமர்ந்த	-10.3816
our	-10.3823
▁அர்த்த	-10.3825
▁தொழில்முறை	-10.3826
600	-10.3827
▁பிரதிநிதி	-10.383
▁பொருளின்	-10.3832
▁அடித்த	-10.3832
▁1951	-10.3834
▁இணைப்ப	-10.3835
▁சார்பில்	-10.3837
▁ஆரோக்கிய	-10.3841
▁பரம்பரை	-10.3841
▁இப்படத்தின்	-10.3841
▁அடைந்து	-10.3848
▁வழக்கில்	-10.3851
OH	-10.3852
▁புகைப்பட	-10.3854
▁சிறுவர்	-10.3854
வற்றில்	-10.3855
▁கட்டத்தில்	-10.386
ஞான	-10.3873
▁போக்க	-10.3875
▁பாசி	-10.3877
▁பிந்தைய	-10.3877
▁கடலில்	-10.3878
▁கவலை	-10.3878
▁பிடித்து	-10.3878
க்கல்வி	-10.3884
▁அறிவிக்க	-10.3887
த்துக்கான	-10.3888
▁பெல்	-10.3889
ுகின்றார்	-10.389
ob	-10.3893
▁வழிபட	-10.3898
▁சிங்கள	-10.3899
▁உருசிய	-10.39
▁உட்படுத்த	-10.3902
▁மைக்	-10.3904
▁பதில்	-10.3906
▁தொண்டை	-10.3909
▁பேசப்படுகிறது	-10.3912
▁ட்ர	-10.3912
▁ஸ்டுடியோ	-10.3913
▁முதுகலை	-10.3913
விற்கும்	-10.3918
ுபவர்கள்	-10.392
▁இதழாகும்	-10.392
நிறுவன	-10.3922
▁விடுதி	-10.3922
▁நீண்டகால	-10.3922
▁பூசை	-10.3924
▁என்பவற்ற	-10.3927
ப்போட்டி	-10.393
tu	-10.3933
ாவார்	-10.394
▁பூச	-10.3945
▁பணியை	-10.395
▁அதிகப்படியான	-10.395
▁புத்தகம்	-10.3952
▁காலநிலை	-10.3952
▁கதைகள்	-10.3953
▁சம்பா	-10.3954
▁வடக்கில்	-10.3956
ப்படுவதால்	-10.3963
▁பயிரிட	-10.3964
க்கரு	-10.3964
▁ஒட்டு	-10.397
விடுகிறது	-10.3973
▁சட்டத்தின்	-10.3982
▁மூழ்க	-10.3988
பீன்	-10.3988
▁கோழி	-10.399
சுவாமி	-10.3998
த்தொடர்	-10.4002
▁இந்நகர	-10.4004
▁கிராம்	-10.4006
▁ஆங்கிலம்	-10.4006
▁என்பதில்	-10.4014
▁நூலை	-10.4016
▁உயரத்தில்	-10.4018
மனித	-10.402
ிழை	-10.4021
▁இடமாக	-10.4021
▁பெல்ஜிய	-10.4023
▁2-	-10.4023
▁நடப்ப	-10.4024
இல	-10.4026
▁வென்று	-10.4031
▁செல்வாக்கு	-10.4032
▁வழங்கினார்	-10.4035
▁வேண்டி	-10.4037
pro	-10.4038
▁சுல்தான்	-10.4043
▁குறிப்பிடப்பட்ட	-10.4044
▁திறக்க	-10.4046
▁செய்திகள்	-10.4049
ப்பாடல்	-10.4053
▁ஒவ்வொன்ற	-10.406
▁கல்லீரல்	-10.406
▁உடல்நல	-10.406
யடுத்து	-10.4062
பரப்ப	-10.4063
▁கௌரவ	-10.4063
க்கூடியதாக	-10.4067
▁இலா	-10.4068
▁கண்டுபிடிப்பு	-10.4069
▁வேளாண்	-10.4072
▁திரட்ட	-10.4073
▁சபா	-10.4077
▁1968	-10.4077
▁கிழக்கில்	-10.4079
பெர	-10.4083
▁ஃபே	-10.4091
▁மாறும்	-10.4096
வரலாற்ற	-10.4096
▁சாம்பியன்	-10.4096
▁நிலம்	-10.4096
▁பக்தர்கள	-10.4098
▁இலவச	-10.4098
▁வசந்த	-10.4101
▁பஞ்சாப்	-10.4101
▁ஐசோ	-10.4107
விட்டால்	-10.411
விட்டன	-10.4111
ng	-10.4113
புளோ	-10.4118
▁பாரதி	-10.4121
▁ஹொங்கொங்	-10.4128
▁ஒலிம்பிக்	-10.4135
▁எரிபொருள்	-10.4136
▁சேர்க்கை	-10.4136
▁அவசர	-10.4137
▁தெரிந்த	-10.4137
▁அருங்காட்சியகம்	-10.4147
▁கட்டளை	-10.415
▁தலைமையிட	-10.415
▁150	-10.4151
▁பணிபுரிந்தார்	-10.4152
▁மில்லியன	-10.4154
▁வட்டத்தில்	-10.4155
▁கட்டிய	-10.4155
▁நெய்	-10.4157
▁பெயரால்	-10.4164
▁வட்டத்தின்	-10.4164
▁துறைகளில்	-10.4165
▁நுழைந்த	-10.4171
▁இயல்பான	-10.4172
ுள்ளதாக	-10.4172
▁நிலக்கரி	-10.4172
பியன்	-10.4183
▁மேலாளர	-10.4185
கூர்	-10.4207
▁ஒத்து	-10.4208
▁திருக்கோயில்	-10.4209
▁சாகி	-10.421
▁மொழிபெயர்ப்ப	-10.4211
▁மெகா	-10.4213
▁போதிலும்	-10.4215
▁சித்தரிக்க	-10.4215
ara	-10.4218
க்குறை	-10.4219
▁நுரையீரல்	-10.4227
வூர்	-10.4227
▁மென்பொருள	-10.4227
▁உலை	-10.4235
ியதால்	-10.4236
மனை	-10.4243
கொள்கிறார்	-10.4243
▁தோற்கடித்த	-10.4247
▁வைட்டமின்	-10.4247
▁தெற்கில்	-10.4247
▁தவறாக	-10.4249
டான்	-10.425
▁விளக்கம்	-10.4254
▁பாலியல்	-10.4265
▁நிறுவனத்தை	-10.4266
▁விவசாயி	-10.4273
▁தவறான	-10.4275
▁போட்டியிட்ட	-10.4275
பிரதேச	-10.4276
▁நூ	-10.4277
ப்படுவதாக	-10.4278
நிர	-10.4283
▁இங்கிலாந்தில்	-10.4285
▁இசையில்	-10.4287
PA	-10.4287
▁இவ்விதழ	-10.4288
▁துல்லிய	-10.4288
▁An	-10.4289
▁பரா	-10.429
▁கிரிக்	-10.4292
▁பிரிட்டன	-10.4296
▁up	-10.4297
▁வடிவமைத்த	-10.4298
▁ஜோன்	-10.4299
▁என்பவரை	-10.4299
▁பான்	-10.43
▁சேமிக்க	-10.43
▁பாடகர்	-10.4303
▁இத்திட்ட	-10.4304
சிறந்த	-10.4305
Br	-10.431
மீது	-10.431
ுவதாகும்	-10.4319
ip	-10.4319
▁கோபுர	-10.4322
▁அச்சுப்பொறி	-10.4322
▁சமன்பாடு	-10.4322
▁காசி	-10.4332
▁பாரதிய	-10.4334
▁பெண்களின்	-10.4338
▁குடும்பத்தினர	-10.4339
▁சுல்தான	-10.4341
▁1956	-10.4342
▁மஞ்ச	-10.435
au	-10.4355
ிருச்சிராப்பள்ளி	-10.4361
▁அலுமினியம்	-10.4362
▁துவங்கியது	-10.4366
▁திட்டத்தை	-10.4372
டெக்	-10.438
ஆங்கிலம்	-10.4383
ity	-10.4384
ian	-10.4385
▁அய்ய	-10.4386
▁தொடர்ச்சியான	-10.4387
▁மேற்கொண்டார்	-10.4388
▁சம்பவ	-10.44
▁வணங்க	-10.4402
▁நடிப்பு	-10.4403
▁ஐதரோ	-10.4405
தொடர்	-10.4405
▁பொதுத்	-10.4407
▁ஆய்வில்	-10.4408
▁தகவல்களை	-10.4408
▁இக்கோவில	-10.441
▁மூச்சு	-10.4412
ba	-10.442
▁US	-10.4431
▁கவிதைகள்	-10.4432
▁நீதிமன்றம்	-10.4434
▁அமைக்கப்பட்டது	-10.4437
▁அங்கீகரிக்க	-10.4437
▁கால்நடை	-10.4437
▁கிளர்ச்சி	-10.4437
▁ஏற்று	-10.444
▁தலைநகரான	-10.4441
▁தொண்ட	-10.4444
▁உளவு	-10.4445
▁வாழ்க்கையில்	-10.4446
▁கிட்ட	-10.4452
▁லூயி	-10.4452
▁தொடர்ச்சி	-10.4454
ஜூ	-10.4454
மாலை	-10.4455
ரீதியாக	-10.4457
▁ஆட்சியில்	-10.4458
படியாக	-10.4459
▁இயல	-10.4459
▁படத்தை	-10.4462
▁ஏஞ்சல	-10.4464
ஸன்	-10.4467
▁உள்ளடங்க	-10.4468
▁தோல்வியடைந்த	-10.4476
▁சரக்கு	-10.4485
▁கில்	-10.4488
லங்கா	-10.449
▁நிபுணர்	-10.4492
▁முடிக்க	-10.4494
▁உதவியுடன்	-10.4497
▁அடுக்க	-10.4505
▁வில்ல	-10.4508
▁விளங்கிய	-10.4509
▁பயன்பட்ட	-10.4509
▁சம்ம	-10.451
த்தூ	-10.4512
▁பராமரிக்க	-10.4514
▁துப்பாக்கி	-10.4514
▁லண்டன்	-10.4514
ாயிரம்	-10.4515
ெலும்பு	-10.4516
▁மேற்கோள்	-10.4516
லொ	-10.4517
▁கூடும்	-10.4521
▁நாவல்	-10.4528
▁Al	-10.4537
▁1944	-10.4537
▁செய்கிறார்	-10.4544
ff	-10.455
குறிப்பிடுகிறார்	-10.4554
▁எழுத்தாளர	-10.4555
ிருந்தால்	-10.4559
▁நடவடிக்கைகள்	-10.456
▁மடங்கு	-10.4563
▁வளர்த்த	-10.4563
▁கருத்தில்	-10.4565
▁நெருங்கிய	-10.4571
▁நீளமான	-10.4571
பதிவு	-10.4573
வள்	-10.4575
▁இண்ட	-10.4578
▁மீட்ட	-10.4578
▁ஏற	-10.4582
▁விலங்குகள்	-10.4584
▁பிறப்ப	-10.4585
▁தாண்டி	-10.4585
▁எச்ச	-10.4586
▁எட்ட	-10.4586
▁ராய்	-10.4588
▁மேற்கில்	-10.4594
▁நிர்வாகம்	-10.4595
▁திரைப்படங்கள்	-10.4596
▁முழுமை	-10.4597
யாய்	-10.4598
ப்பாளர்	-10.4604
▁அழைப்ப	-10.4604
▁பாடலை	-10.4607
▁அறிவிக்கப்பட்ட	-10.4609
▁அளவி	-10.461
ுநர்	-10.4618
▁மதிப்பை	-10.4627
▁காட்டுகிறது	-10.4627
▁தற்கொலை	-10.4631
▁பழங்கால	-10.4631
▁திகழ்ந்த	-10.4632
▁உடலின்	-10.4638
கிரு	-10.4641
▁கௌதம	-10.4644
சியம்	-10.465
▁புற்றுநோய	-10.4651
▁உதய	-10.4653
▁மெய்யியல	-10.4655
▁ஃபார்	-10.4664
▁ஆகியோரின	-10.4664
சைட்டு	-10.4666
▁பயன்படுத்தலாம்	-10.4668
▁முதன்மையாக	-10.4669
▁மெதுவாக	-10.4673
குள	-10.4675
▁வெளிப்பாடு	-10.4679
செட்	-10.4681
விளையாடியுள்ளார்	-10.4683
▁நிலப்பகுதி	-10.469
▁வினையின்	-10.4691
மற்றும்	-10.4692
▁இதற்கான	-10.4696
▁தம்பி	-10.47
▁கிராஃபிட்டி	-10.4709
▁பகதூர்	-10.4709
▁ஏதேனும	-10.471
▁ஏற்படுத்தி	-10.4711
▁தாங்கி	-10.4713
▁பாத்திரத்தில்	-10.4714
கரமான	-10.4714
▁ஊசி	-10.4717
▁ராணா	-10.4718
▁குழுவினர	-10.4719
▁பொன்ன	-10.472
▁கண்டறியப்பட்டது	-10.4723
▁கண்டறியப்பட்ட	-10.4729
▁தமிழகத்தின்	-10.473
▁வசித்து	-10.4734
▁பகிர	-10.474
▁நாசி	-10.4744
▁தெற்கே	-10.4749
▁வேட்டையாட	-10.475
ie	-10.4753
▁பக்தி	-10.4754
▁சிறுநீர்	-10.4758
தெற்க	-10.4758
▁முனைய	-10.4764
▁1920	-10.4765
▁குறிப்புகள்	-10.4768
An	-10.4768
த்தேர்	-10.4768
▁வைப்ப	-10.4775
▁சார்ந்து	-10.4781
▁நபர்கள்	-10.4782
▁அண்மையில்	-10.4783
Ch	-10.4787
Pro	-10.4788
▁இருந்தவர்	-10.4788
▁Nobel	-10.4788
▁நியூசிலாந்து	-10.4788
▁பற்றாக்குறை	-10.4788
▁காரணத்தால்	-10.4796
மிக	-10.4796
▁வழியே	-10.4802
ப்பதற்கான	-10.4802
ில்லாமல்	-10.4805
▁அனைவர	-10.481
▁நிலையங்கள்	-10.4812
ராஜன்	-10.4814
▁இயற்ற	-10.4815
தென்	-10.4818
க்கொண்டார்	-10.4826
▁படைப்ப	-10.4827
▁மேற்பரப்ப	-10.4828
▁முற்றுகை	-10.4829
▁ஆந்திர	-10.483
▁for	-10.4831
மின்றி	-10.4838
▁ராயல்	-10.484
▁மலேசிய	-10.4844
▁மரங்கள்	-10.4845
▁செறிவு	-10.4847
▁வைத்திருந்த	-10.485
▁செயல்திறன	-10.4851
▁துர்	-10.4854
▁பிரித்து	-10.4855
▁அதிகரிக்கும்	-10.4855
▁உயரமான	-10.4861
▁பகுதிக்கு	-10.4864
▁நான்காம்	-10.4869
▁இதனுடைய	-10.4869
▁அடிப்படையாக	-10.487
▁பட்டியலிடப்பட்ட	-10.487
ப்பொருளாக	-10.4871
லென்	-10.4873
▁ஆகியோருடன்	-10.4873
▁வெட்டி	-10.4873
▁சுற்றியுள்ள	-10.4877
▁பொருட்களின்	-10.4879
▁கொடுப்ப	-10.4881
▁எகிப்த	-10.4884
▁பியூ	-10.4885
800	-10.4886
▁இடங்கள்	-10.4888
▁குறைப்ப	-10.4889
டால்	-10.4892
▁போட்டியின்	-10.4894
ea	-10.4896
செயல	-10.4899
▁இருக்கை	-10.49
முடியாத	-10.4904
நாக	-10.4911
▁பயனுள்ள	-10.4914
▁சம்பந்த	-10.4919
லுக்கான	-10.4922
▁நகரங்களில்	-10.4923
▁திட்டத்தின்	-10.4925
▁பொருட்டு	-10.4935
▁டான்	-10.4938
▁தொடங்கப்பட்ட	-10.4943
▁அவளை	-10.4944
▁Jump	-10.4949
▁வளிமண்டல	-10.4949
▁காளி	-10.4952
ug	-10.4957
▁வெளிநாட்டு	-10.4957
pp	-10.4961
வினால்	-10.4962
▁வயல	-10.4964
▁அருள்	-10.4965
மேலும்	-10.4965
கடல்	-10.4967
▁தருகிறது	-10.4973
▁1946	-10.4973
▁புற்று	-10.4975
▁சத்ய	-10.498
▁இவன்	-10.4982
▁அன்னை	-10.4983
▁ராணுவ	-10.4989
▁தோற்றுவிக்க	-10.4989
▁400	-10.4994
▁பெற்றுள்ளன	-10.5
▁வகையாகும்	-10.5005
▁இசையமைப்பாளர்	-10.5005
▁எஃப்	-10.5006
▁1961	-10.5007
▁லாஸ்	-10.5009
▁உறுப்பினராகவும்	-10.5009
▁1965	-10.5012
▁வரம்பு	-10.502
▁அரிதாக	-10.5021
▁விழுக்காடு	-10.5023
▁பட்டா	-10.5025
பேர்	-10.5029
▁ஊடுருவ	-10.503
▁செயற்பாடு	-10.5031
▁தரவுத்தள	-10.5031
▁பயன்படுகின்றன	-10.5035
▁பாகிஸ்தான்	-10.5039
▁விழுந்த	-10.5043
ram	-10.5047
▁நீங்கள்	-10.5047
ஸோ	-10.5051
க்குட்பட்ட	-10.5056
up	-10.5056
▁புளோரைடு	-10.5059
▁மாற்றாக	-10.5062
▁பிரபலமாக	-10.5068
ெங்கும்	-10.5069
▁சுட	-10.5071
னொ	-10.5072
▁மேம்பட்ட	-10.5073
▁கல்லறை	-10.5074
▁உட்கொள்ள	-10.5075
▁செலுத்தி	-10.5075
▁நகரை	-10.5079
▁தமிழகத்தில்	-10.508
▁விடுதலைப்	-10.5082
▁மீற	-10.5083
▁முளை	-10.5083
▁ஹில்	-10.5083
▁ஃபியட்	-10.5086
war	-10.5087
▁வந்தன	-10.5101
▁ஆற	-10.5103
▁முருகன்	-10.5105
▁தகவல்கள்	-10.5106
பிடித்த	-10.511
▁தேர்ந்தெடுத்த	-10.5112
▁புதுச்சேரி	-10.5113
▁பாலா	-10.5114
ங்களுக்காக	-10.5117
▁பெரி	-10.5117
முடியும்	-10.5127
▁செயற்பாட்ட	-10.5131
பயண	-10.5132
▁1954	-10.5133
▁ஏற்படலாம்	-10.5135
▁பண்ட	-10.5136
▁அலக	-10.5138
அதாவது	-10.514
▁பள்ளத்தாக்கு	-10.5144
▁நாய்	-10.5145
வியலாளர	-10.5146
▁வினையூக்கி	-10.5153
குளோர	-10.5156
▁எரிமலை	-10.5158
ாலேயே	-10.5159
▁தாமத	-10.5168
▁ஏக்கர்	-10.5168
▁உருவாக்கியது	-10.5173
ியுள்ளனர்	-10.5175
▁விடும்	-10.5175
▁பொய்	-10.5183
யிட்டு	-10.5186
ப்படுவதை	-10.5187
▁பங்கேற்க	-10.5194
▁சுட்டு	-10.5196
▁வேல்	-10.5197
▁உடையது	-10.5202
▁இதழில்	-10.5202
வருகின்றார்	-10.5202
SO	-10.5207
▁படகு	-10.5208
▁எக்ஸ்	-10.5211
▁முதலீட்டாளர்	-10.5212
▁பொருட்கள	-10.5215
க்காகவும்	-10.5228
ுணர்வு	-10.5229
▁பகு	-10.5235
▁இரும	-10.5235
வீச்சு	-10.5236
▁வெற்றிகரமாக	-10.5236
▁உகந்த	-10.5238
தன்மை	-10.5241
▁சூப்பர்	-10.5243
எஃப்	-10.5247
▁நிறுவனமான	-10.525
ிலிருந்தே	-10.5251
▁முருக	-10.5251
▁நந்தி	-10.5253
▁அருக	-10.5261
▁அசிரிய	-10.5264
▁மண்டலம்	-10.5278
சல்பைடு	-10.5278
▁இவ்வா	-10.5279
▁இறைவன	-10.5279
▁ஹரி	-10.528
▁சிலி	-10.5282
▁ஜெர்மனியின்	-10.5283
▁மனோ	-10.5284
▁அதிகரித்து	-10.5289
▁தோன்றியது	-10.5292
▁பிரசாத்	-10.5297
▁சந்தையில்	-10.5303
▁யோக	-10.5304
▁போக்கு	-10.5311
ப்பெற	-10.5316
▁தனித்து	-10.5322
▁அளிக்கும்	-10.5327
▁திரிபு	-10.5334
▁சத்திய	-10.5335
▁டெல்	-10.5348
▁தழுவி	-10.5348
-18	-10.535
▁வெற்றியை	-10.5352
▁காலகட்ட	-10.5356
▁திட்டங்கள்	-10.5356
▁தலைவர	-10.5357
▁ப்ளூ	-10.5361
▁வான்காணக	-10.5361
▁பிலிப்	-10.5362
▁செரு	-10.5364
கூற்று	-10.5367
▁கிரக	-10.5369
மில்லை	-10.5369
வார்ட்	-10.5373
▁கதிர	-10.5376
▁1966	-10.538
▁ஈடு	-10.5387
▁நெடுங்க	-10.539
▁போருக்கு	-10.5391
▁இயல்	-10.5392
▁நிழல	-10.5392
▁Ra	-10.5395
▁முன்னேற	-10.5396
▁என்றே	-10.5397
ப்பாறை	-10.5402
▁நிகழ	-10.5403
▁சந்தேக	-10.5404
▁அங்கிருந்து	-10.5405
▁அனைத்துலக	-10.5405
▁டைம்ஸ்	-10.5406
▁பங்களிப்ப	-10.5409
▁உருளை	-10.5413
▁அதிகாரிகள்	-10.5416
▁துன்ப	-10.5421
▁பயணிகள்	-10.5424
▁நெதர்லாந்து	-10.5425
▁மேக	-10.5429
▁ஃபோ	-10.5437
▁படித்தார்	-10.5439
▁அவ்வப்போது	-10.5446
நிதி	-10.5449
ினான்	-10.5454
▁வடக்கே	-10.5454
ாளரான	-10.5455
▁ரஷ்ய	-10.5456
ee	-10.5458
▁நாட்களுக்கு	-10.5459
▁விவரித்த	-10.5463
▁முன்னரே	-10.5466
▁தொடர்பாக	-10.547
▁ஆளுநர்	-10.5471
▁ஆராய்ச்சியாளர்	-10.5473
ப்பிள்ளை	-10.5474
▁முடித்தார்	-10.5476
▁1939	-10.5484
▁கரைசல்	-10.5485
▁செயல்பாட்டு	-10.5488
▁வீதி	-10.549
▁கொண்டே	-10.549
▁பகுதிகளிலும்	-10.5491
▁உருவாகின்றன	-10.5491
▁தொடங்கின	-10.5493
▁பெருந்த	-10.5493
▁தொகுப்பில்	-10.5496
▁கொன்று	-10.5499
io	-10.5501
▁திரைப்படமான	-10.5501
NO	-10.5505
றிந்த	-10.5519
சமய	-10.5524
ரைட்டு	-10.5528
▁படித்த	-10.5529
ஃபோ	-10.553
▁காஷ்மீர	-10.5531
▁வயிற்று	-10.5531
▁துறவி	-10.5531
▁ராஜஸ்தான்	-10.5533
▁போட	-10.5543
▁இடி	-10.5548
▁பேண	-10.555
கொண்டிருக்கின்றன	-10.5554
ுலக	-10.5559
▁சென்றது	-10.5566
பாக	-10.5568
▁செய்யலாம்	-10.557
▁திறந்து	-10.557
▁1937	-10.5572
▁அதிர்வெண்	-10.5574
▁விரைவு	-10.5574
▁வழித்தட	-10.5575
▁அறியப்படுகிறார்	-10.5578
▁பிளாக்	-10.5585
▁ஆசிரியர்கள்	-10.5587
ம்பட்டி	-10.5588
▁சிந்து	-10.5589
▁வரையறுக்கப்பட்ட	-10.5595
▁சீனாவின்	-10.5601
▁கருதப்படும்	-10.5602
▁குழுவை	-10.5609
▁பக்கத்தில்	-10.562
▁குறிக்கோள	-10.562
▁பரம	-10.5624
▁போலி	-10.5634
▁தொகையில்	-10.5639
▁சூழலில்	-10.5646
ple	-10.5646
ாயிற்று	-10.5647
ங்களுள்	-10.5649
க்கட்டி	-10.5649
AD	-10.565
னிங்	-10.5651
▁திரைப்படத்தை	-10.5651
▁போதை	-10.5654
நைட்ரோ	-10.5656
▁துண்டு	-10.566
▁தொடர்வண்டி	-10.566
▁எசுப்பானிய	-10.566
▁ஆகியவற்றுக்கு	-10.5661
▁ரவி	-10.5663
▁ஓரளவு	-10.5664
சைன்	-10.5665
▁1000	-10.5665
ence	-10.5669
ாற்	-10.5679
▁தலைப்பில்	-10.5686
▁செவி	-10.5686
போதே	-10.5688
▁விழாவில்	-10.5689
▁ஏற்றுக்கொண்ட	-10.5695
இலங்கை	-10.5699
▁வட்டி	-10.5701
▁ஏனென்றால்	-10.5704
▁தெரிகிறது	-10.5704
▁அமினோ	-10.5704
▁உயர்நிலைப்	-10.5704
▁இயற்றிய	-10.5705
▁தொழில்துறை	-10.5708
Si	-10.571
▁கவுண்டி	-10.571
▁படங்கள்	-10.5711
▁அலுவலகம்	-10.5712
▁தொடங்கினர்	-10.5714
▁பிளவு	-10.5715
▁வெல்	-10.5716
▁தாள	-10.5717
▁சிறீ	-10.5717
▁பெண்களுக்கு	-10.5717
▁அருகிலுள்ள	-10.5718
▁பாடி	-10.5722
▁தட்டு	-10.5723
▁1955	-10.5728
▁குறைவு	-10.5728
கிராம	-10.5731
டொ	-10.5741
டெல்	-10.5742
▁பொறுத்த	-10.5743
த்தொகுதி	-10.5743
ga	-10.5743
களுடனும்	-10.5745
▁திரும்பிய	-10.5746
▁பிரீமியர்	-10.5748
▁மேம்பாடு	-10.5748
▁வலையமைப்ப	-10.5749
▁பொறுப்பேற்ற	-10.575
▁நிர்ணய	-10.5751
▁செம்ப	-10.5753
▁நிறுவனங்களின்	-10.5754
▁இடைக்கால	-10.5755
▁ஓடி	-10.5768
▁தொன்ம	-10.5769
▁தூண்	-10.5781
▁பெயரிடப்பட்ட	-10.5783
▁கவனத்தை	-10.5785
ப்பற்றி	-10.5787
▁முதலை	-10.5789
▁இந்ந	-10.5791
▁ஒருங்கிணைப்ப	-10.5791
▁நடுவண்	-10.5791
▁கரையோர	-10.5791
▁ஐதராக்சைடு	-10.5792
▁பறக்கும்	-10.5795
▁மன்னன்	-10.5803
▁வெட்டு	-10.5805
▁தழுவ	-10.5811
முத்து	-10.5813
▁1958	-10.5813
▁மனிதன்	-10.5815
▁ஆசிரிய	-10.582
▁சங்கத்தின்	-10.5826
AT	-10.5831
ess	-10.5834
IV	-10.5835
▁வியட்நாம்	-10.5835
▁விஷ்ணு	-10.5835
▁மதிப்பெண்	-10.5837
▁நடுத்தர	-10.5838
▁நிலையத்தில்	-10.584
▁நகரத்தை	-10.5841
கலைஞர	-10.5845
▁கூடாது	-10.5845
▁அருந்த	-10.585
ப்பாட்டு	-10.5851
▁வங்க	-10.5852
ton	-10.5853
கதிர்	-10.5856
▁சேர்த்த	-10.5858
ுவோர்	-10.5858
▁அரண்	-10.5859
▁நார்வே	-10.5859
▁வர்ண	-10.5868
▁ஆதிக்கம்	-10.587
▁கரோ	-10.587
▁இயங்கு	-10.5875
இதழ்	-10.5877
▁திருவண்ணாமலை	-10.588
▁ஆவாா்	-10.588
▁தொலைநோக்கி	-10.5881
▁மாநகராட்சி	-10.5881
▁இதற்காக	-10.5887
பொருட்கள்	-10.5889
▁நம்பி	-10.589
▁தானே	-10.5891
▁நின்ற	-10.5892
▁எண்ணிக்கையில்	-10.5897
▁இந்நகரம்	-10.5903
▁மாதங்கள்	-10.5917
▁இடத்தைப்	-10.592
வண்ண	-10.5921
▁மாறிய	-10.5923
▁பிரம்ம	-10.5924
▁சுட்டிக்காட்ட	-10.5924
▁ஆகஸ்டு	-10.5924
▁வீதம்	-10.5924
▁முடிவடைந்த	-10.5926
▁நடித்திருந்தனர்	-10.5927
▁பொருள்படும்	-10.5929
▁வெளியாகி	-10.5935
புரா	-10.5936
▁ஆந்திரப்	-10.594
▁அமைந்திருக்கும்	-10.594
▁முதலான	-10.5944
▁சொன்ன	-10.5951
▁நடைமுறையில்	-10.5952
▁இறைவன்	-10.5952
▁சொற்கள்	-10.5952
▁கார்த்திக்	-10.5957
ரென்	-10.5963
▁கற்க	-10.5965
▁கரையில்	-10.5967
▁நெருக்கடி	-10.5969
▁சிறுநீரக	-10.5969
▁எழுத்தறிவு	-10.5969
▁கல்யாண	-10.5971
▁அமைச்சரவை	-10.5982
▁தெளிவான	-10.5982
▁வலு	-10.5985
▁இறக்கை	-10.5986
த்திற்க	-10.5997
▁நிறுவனங்களில்	-10.5999
▁போய்	-10.6
▁ஊட்ட	-10.6007
▁நிறமற்ற	-10.6012
▁படுகொலை	-10.6014
▁பிரச்சார	-10.6014
ீஸ்வரர்	-10.6014
▁சாம்பியன்ஷிப்	-10.6015
▁படைப்பிரிவு	-10.6016
▁குட்டி	-10.6018
▁வரலாற்றை	-10.6021
▁இராகமும	-10.6026
நாள	-10.6027
▁உரிமையாளர்	-10.6032
▁Se	-10.604
▁வேட்டை	-10.6042
▁அங்கீகார	-10.6059
ங்குடி	-10.6068
▁மேற்கொள்	-10.6069
ace	-10.607
▁இடத்திற்கு	-10.6072
▁எடுப்ப	-10.6074
▁செய்கின்றன	-10.6083
சியன்	-10.6086
▁கவனிக்க	-10.6087
▁தாக்கத்தை	-10.6089
▁முயல்	-10.6097
பண்	-10.6101
▁மனு	-10.6102
▁திட	-10.6103
▁வரையிலும்	-10.6104
▁Retrieved	-10.6104
▁சிம்பாப்வே	-10.6104
▁வழிவகுத்த	-10.6104
▁விரிவுரை	-10.6104
▁அளவீடு	-10.6108
▁நடவடிக்கைகளை	-10.6108
▁பெறுகிறது	-10.6108
▁புரூ	-10.6113
▁பறி	-10.6113
▁பாரா	-10.6115
▁கப்பல	-10.6133
▁பிரிந்து	-10.6139
▁குரூ	-10.6144
நெட்	-10.6148
▁ஃபிளாஷ்	-10.6149
ight	-10.6149
▁நமது	-10.615
NH	-10.6151
▁வலுவான	-10.6151
▁கூட்டமைப்பு	-10.6155
ராமன்	-10.6177
700	-10.6179
▁உளவியல	-10.6179
▁தென்கிழக்கு	-10.6186
▁வளர்ப்ப	-10.6193
▁காடுகள்	-10.6193
வியலில்	-10.6194
▁வரையான	-10.6194
▁கூடுதலான	-10.6195
▁கதிரியக்க	-10.6195
▁உருசியா	-10.6196
▁சமீபத்திய	-10.6196
▁சராசரியாக	-10.6198
மூர்	-10.6201
▁போட்டியிட	-10.6205
▁நினைவக	-10.6209
CA	-10.6214
▁ஒட்ட	-10.6214
ana	-10.623
▁புனைவு	-10.6231
▁தவிர்த்து	-10.6231
▁வருடங்களுக்கு	-10.6234
▁பகுதிகளுக்கு	-10.6239
ிருப்பதை	-10.624
▁சாகுபடி	-10.6241
▁பெருமளவு	-10.6243
▁செய்துகொண்ட	-10.6243
▁இடையேயான	-10.6263
ஃபே	-10.6266
▁வடகிழக்கு	-10.6271
சுந்தர	-10.6274
▁தலைநகர்	-10.6279
▁அடைந்தது	-10.6284
▁படிப்படியாக	-10.6287
ரீதியில்	-10.6291
▁பூனை	-10.6292
ish	-10.6294
▁சமமான	-10.6296
▁குடும்பத்தைச்	-10.6296
ome	-10.6297
▁பிரதமர்	-10.6298
▁ஆண்டுதோறும்	-10.6298
▁பெயராலும்	-10.6301
▁சுப்பிரமணிய	-10.6302
ய்யா	-10.6303
▁பெரும்பகுதி	-10.6305
▁வருகின்றது	-10.6311
▁வாழ்கின்றனர்	-10.6311
▁வயதிற்கு	-10.6312
one	-10.6313
▁சேமிப்பு	-10.6313
▁கிராமத்தின்	-10.632
▁பின்லாந்த	-10.632
▁ரெட்டி	-10.6321
▁மெல்லிய	-10.6321
ப்படுவத	-10.6323
▁உணவாக	-10.6323
க்கோடு	-10.6324
ஸ்ரீ	-10.6324
▁இழக்க	-10.6327
▁சேர்மங்கள	-10.6327
▁தீவில்	-10.6328
▁வேளையில்	-10.6334
▁நீரின்	-10.634
▁மாதங்களில்	-10.6341
▁உரோமை	-10.6344
▁கனடிய	-10.6344
த்திற	-10.6352
▁பந்தய	-10.6354
▁மரியாதை	-10.6355
▁பொருத்தமான	-10.6374
▁முகம்மது	-10.638
▁மாளிகை	-10.638
▁வசிக்கும்	-10.6381
▁அவசியம்	-10.6383
▁நாட்டுப்புற	-10.6384
▁அழகி	-10.6384
▁மாநகர	-10.6386
மென	-10.6389
▁இயக்கி	-10.6394
▁படையெடுப்பு	-10.6397
டியன்	-10.64
▁உணவை	-10.6402
▁இதுபோன்ற	-10.6406
▁இயக்குநராக	-10.6411
▁பேரும்	-10.6412
bo	-10.6415
▁தொடரை	-10.6416
▁காண்பிக்க	-10.6424
▁பிற்காலத்தில்	-10.6427
▁இக்கனிம	-10.6427
▁தொகுக்கப்பட்ட	-10.6428
▁ஆயிர	-10.6429
▁அச்சுறுத்த	-10.6429
▁மன்னன	-10.643
▁இன்டெல்	-10.643
▁நாகரிக	-10.643
▁முகலாய	-10.6431
▁போன்றவற்றில்	-10.6431
▁மஹா	-10.6433
▁இயலாது	-10.6434
▁மருத்துவமனையில்	-10.6434
▁வெண்மை	-10.6441
▁பிரித்த	-10.6444
▁உருவாகி	-10.6446
▁ஆட்சியாளர்	-10.6446
▁அலுவலர்	-10.6446
▁மோகன்	-10.6447
ja	-10.6448
ப்படுவதற்கு	-10.645
ெடுத்து	-10.6452
▁ஒன்றே	-10.6457
▁விளையாடும்	-10.6458
▁உத்திர	-10.646
▁கண்டுபிடிப்ப	-10.6463
ack	-10.6467
▁கன்னியாகுமரி	-10.6473
▁முதன்முதலாக	-10.6473
▁உற்சவ	-10.6473
▁இறகு	-10.6474
வாளர்	-10.6486
▁கட்டமைப்பை	-10.6487
▁விதிமுறை	-10.6492
▁அறிவிப்ப	-10.6493
▁இருந்ததால்	-10.6496
திருத்த	-10.6498
▁கிருஷ்ணா	-10.6502
▁ஏல	-10.6502
▁அமர்த்த	-10.6504
▁முறைப்படி	-10.651
▁அன்பு	-10.6515
▁எய்	-10.6516
▁கொல்லப்பட்ட	-10.6519
▁கொலம்பியா	-10.6521
▁நீதிக்கட்சி	-10.6521
▁கிடையாது	-10.6521
▁பணவீக்க	-10.6521
▁புகையிலை	-10.6521
▁சடங்கு	-10.6521
▁வைத்தார்	-10.6528
▁1941	-10.6536
▁சாதனையை	-10.6539
▁உணர்த்த	-10.6541
▁1959	-10.6544
▁வளர்ச்சியை	-10.6545
ச்சாலை	-10.6546
ல்டிகைடு	-10.6547
▁சொத்துக்கள	-10.6551
▁நிலவிய	-10.6555
யிட்	-10.6557
▁நகருக்கு	-10.6562
▁இடங்களை	-10.6562
ிங்டன்	-10.6565
▁மார்பக	-10.6569
▁வெல்ல	-10.6569
▁வெளியேறி	-10.6569
▁கூட்டுறவு	-10.657
▁ஈராக்	-10.6571
▁கருதுகின்றனர்	-10.6577
▁பாலிவுட்	-10.6578
▁செறிவ	-10.6583
▁சிதைவ	-10.6584
▁மோதல்	-10.6589
▁தேவைப்படுகிறது	-10.6596
▁திசையில்	-10.6598
க்கொள்ளும்	-10.6603
▁பாகிஸ்தான	-10.6605
▁இலத்தீன்	-10.6616
▁வாயிலாக	-10.6616
▁சினிமா	-10.6616
▁நிகர	-10.6617
▁இராகத்தி	-10.6618
▁சான்றுகள்	-10.662
▁முதுகு	-10.6621
mb	-10.6621
▁கிடைக்கின்றன	-10.6623
▁காவிரி	-10.6624
▁விசய	-10.6624
வாய்ந்த	-10.6626
▁ஒன்றியத்தில்	-10.6626
பருவ	-10.6628
▁துருக்கிய	-10.6629
▁பேரவை	-10.6637
▁எடுத்துக்கொள்ள	-10.6644
பெரிய	-10.6647
▁உள்ளடக்கியது	-10.665
▁ஆகியோருக்கு	-10.6653
▁வரம்ப	-10.6655
▁கொடுத்தார்	-10.6662
▁அத்தகைய	-10.6663
▁இரசாயன	-10.6663
▁பின்னாளில்	-10.6664
▁பசிபிக்	-10.6664
▁அலங்கார	-10.6664
▁பகிர்ந்து	-10.6664
▁இந்தோனேசியா	-10.6665
▁விபத்து	-10.6666
▁குடிமக்கள	-10.6667
▁இருந்துள்ளார்	-10.6667
▁கொண்டுவந்த	-10.6667
▁வம்சத்தின்	-10.667
பணி	-10.6673
ிக்கொள்ள	-10.6675
▁கிறிஸ்துவ	-10.6681
▁உறுப்ப	-10.6684
பின்னர்	-10.6693
களுடைய	-10.6695
▁கொன்ற	-10.6698
▁பெயரிடப்பட்டது	-10.6707
▁மாற்றங்களை	-10.671
▁கோயம்புத்தூர	-10.6712
▁மேற்பார்வை	-10.6712
ah	-10.6713
▁பள்ளத்தாக்க	-10.6722
▁சிதைவு	-10.6722
உலக	-10.6724
▁பெயரிட்ட	-10.6725
ani	-10.6727
▁அறிவியலாளர்	-10.6728
▁பணத்தை	-10.6729
▁குஞ்சு	-10.6733
▁நட்பு	-10.6738
தொரு	-10.6742
▁ஆட்டக்காரர்	-10.6742
▁கருத்துக்களை	-10.6743
▁உரையாட	-10.6744
▁விலங்க	-10.6752
பிரகாச	-10.6758
▁ஜனாதிபதி	-10.676
▁கோளாறு	-10.6761
▁கடலோர	-10.6761
▁விதத்தில்	-10.6765
ப்புள்ளி	-10.6766
▁இணக்க	-10.6768
▁உழைப்ப	-10.6768
வல்ல	-10.6768
▁இறுக்க	-10.6769
▁ஷோ	-10.6771
யம்மன்	-10.6775
▁மட்டை	-10.6778
▁சவ்வ	-10.6782
IC	-10.6784
▁சிறையில்	-10.6786
▁ஆத்திரேலியா	-10.679
பெயர	-10.6792
▁பெறப்படும்	-10.6793
ref	-10.6793
▁சோழர்	-10.6793
▁உண்ணும்	-10.6794
வேண்டுமென்ற	-10.6798
கல்வி	-10.6802
▁பாலூட்டி	-10.6809
▁செங்கிஸ்	-10.6809
if	-10.6813
▁பெற்றனர்	-10.6814
▁பந்துகளில்	-10.6816
▁உருக	-10.6818
அமெரிக்க	-10.6819
▁மறுத்து	-10.6829
▁முகாம	-10.6831
▁வகையைச்	-10.6833
▁தலைப்ப	-10.6841
▁குழந்தைகளுக்கு	-10.6843
▁பெருங்க	-10.6849
ue	-10.6857
▁எச்சரிக்கை	-10.6857
▁துரித	-10.6858
▁பாதுகாத்த	-10.6858
ஹே	-10.6858
தொழில	-10.6858
இங்கிலாந்த	-10.6859
குளுக்கோ	-10.6862
▁பிரதேசத்தில்	-10.6862
▁முதலீட்டு	-10.6864
▁இயல்ப	-10.6867
▁எதிர்வினை	-10.6867
▁பெரும்பான்மையான	-10.6868
▁காங்கிரச	-10.6868
Ph	-10.6868
▁மேற்பரப்பு	-10.6875
லாய்	-10.688
ாக்சைட	-10.6882
▁வானியலாளர்	-10.6884
க்கூட்ட	-10.6887
▁தீவிரமான	-10.6892
ther	-10.6892
▁மீள்	-10.6898
▁தலைநகராக	-10.6901
▁துடுப்ப	-10.6902
pi	-10.6906
▁அப்போதைய	-10.6906
▁கணிசமான	-10.6906
▁வடமேற்கு	-10.6906
www	-10.6906
▁நுகர்வ	-10.6907
▁அவற்றுள்	-10.6908
▁தன்னாட்சி	-10.6909
▁மகனாக	-10.6913
ுவதே	-10.6913
ox	-10.6918
▁எழுச்சி	-10.6918
▁நிறுவனத்தால்	-10.692
▁மோதி	-10.6924
ிருப்பதால்	-10.6924
▁கருத்தை	-10.6928
டீன்	-10.693
▁என்கிறார்	-10.6931
▁ஈர்க்க	-10.6934
▁1949	-10.6936
▁மறைந்த	-10.6941
▁1943	-10.6942
▁கடவுளின்	-10.6943
▁நெஞ்ச	-10.695
வாள்	-10.6951
க்காட்சி	-10.6952
திகார	-10.6953
மண்ட்	-10.6955
▁ஏறக்குறைய	-10.6955
▁அனைத்தையும்	-10.6956
▁இவரே	-10.6956
▁ஆஸ்திரேலிய	-10.6956
▁பவுல்	-10.6957
▁பெற்றோர	-10.6958
▁சந்தைப்படுத்த	-10.6963
▁கதையை	-10.6974
▁குறுக்கு	-10.6976
▁சீனாவில்	-10.6978
▁ஆதரவாக	-10.6982
▁பணிகளை	-10.6988
▁கங்கை	-10.6997
▁ஏற்படுத்தியது	-10.7001
▁அமைவ	-10.7004
▁நெட்வொர்க்	-10.7005
▁அமைச்சக	-10.7006
▁தொட்டி	-10.7007
என்றழைக்கப்படும்	-10.7008
▁அதன	-10.7013
நல்லூர்	-10.7013
▁அவர்களுடைய	-10.7015
▁அரிசி	-10.7016
▁நிகழ்த்திய	-10.7023
▁பொலி	-10.703
fi	-10.7034
▁இருப்பத	-10.7035
cy	-10.7035
▁மேற்கிந்தியத்	-10.7055
▁விவிலிய	-10.7055
▁வடிவத்தை	-10.7059
டேர்	-10.7059
▁நாடார்	-10.7067
hu	-10.7071
▁பின்புற	-10.7077
▁பரவலான	-10.7086
▁வெடிப்பு	-10.7095
▁வலுவ	-10.7097
▁நகர்வு	-10.7099
ப்படாமல்	-10.7103
▁தோராயமாக	-10.7105
▁கால்சியம்	-10.7107
▁பொதுமக்கள்	-10.7108
▁அழித்த	-10.7131
▁பாதிக்கப்பட	-10.7132
▁வாசனை	-10.7136
▁அடித்தள	-10.7136
▁ஏழை	-10.7136
ear	-10.7137
▁இளவரசர்	-10.7155
▁தற்பொழுது	-10.7155
▁செருமனி	-10.7156
▁தொடங்கும்	-10.7156
▁திபெத்திய	-10.7156
▁நுகர்வோர்	-10.7158
▁முதற்	-10.7158
▁வீரராக	-10.7159
▁கால்வாய்	-10.7161
▁காணப்பட்டது	-10.7163
ிருக்கின்றனர்	-10.7165
▁தோன்றுகிறது	-10.7168
ov	-10.7182
▁சொந்தமான	-10.7183
▁ஆற்றில்	-10.7193
▁படைத்தார்	-10.7197
▁பொறியியல	-10.7202
▁வர்க்க	-10.7203
▁மிசௌரி	-10.7205
▁நேபாளத்தின்	-10.7207
▁வெற்றிகரமான	-10.721
பீனைல்	-10.721
சண்முக	-10.721
▁தடுத்து	-10.7211
▁பின்வாங்க	-10.7212
▁இக்கல்லூரி	-10.7214
▁கணவன	-10.7214
றே	-10.7215
▁அதற்கான	-10.7219
▁காணப்படுகின்றது	-10.722
▁தலைவரான	-10.7223
In	-10.7227
▁ஹொ	-10.7231
▁பெயரிட	-10.7235
▁அடித்து	-10.7247
▁கணவர	-10.7252
▁நிரூபிக்க	-10.7256
▁விக்டோரியா	-10.7256
▁அகாதமி	-10.7256
▁நீராவி	-10.7257
▁நிச்சய	-10.7258
▁மிதமான	-10.7259
▁ஊடாக	-10.7266
▁தென்கிழக்க	-10.7268
▁இயக்கியுள்ளார்	-10.7268
▁விடுமுறை	-10.7269
▁மாநாடு	-10.7271
▁புத்தர்	-10.7273
▁கிறிஸ்தவ	-10.728
ிருக்கின்றது	-10.7284
▁வடிவமைக்க	-10.7286
▁கன்னி	-10.7289
▁இறங்க	-10.7293
▁இந்நோய்	-10.7296
Ka	-10.7297
▁பைசா	-10.73
▁நிறுவி	-10.7305
▁ஆப்கானிஸ்தான	-10.7307
நருடோ	-10.7309
▁மண்டபம்	-10.7309
▁நாயக்கர்	-10.731
▁தெரிந்து	-10.7313
ுவதாகவும்	-10.7319
▁விஷயங்கள	-10.7331
▁கர்நாடகா	-10.7332
▁தயாரித்து	-10.7336
▁ஏற்படுவத	-10.7337
▁கருப்பை	-10.7337
▁மாதங்களுக்கு	-10.7343
▁ஸ்டெ	-10.7346
▁மேலான	-10.7354
▁வித்யா	-10.7356
விட்டனர்	-10.7357
▁நானோகுழாய்	-10.7359
▁அறுவடை	-10.7359
▁ஒற்றுமை	-10.7359
▁படையெடுத்த	-10.7359
▁எக்சா	-10.7364
▁நடக்கிறது	-10.7364
▁இருப்பிட	-10.7374
▁கடத்தி	-10.7377
▁போட்டியிட்டு	-10.7378
▁அடையும்	-10.7381
▁டெல்லி	-10.7386
▁பிரான்சின்	-10.7391
▁மொழியை	-10.7394
▁எகிப்து	-10.7398
▁இவரும்	-10.7404
▁பயன்படுத்துவது	-10.7404
▁ஜோடி	-10.7404
▁நிறுவனமாக	-10.7405
▁வாய்ப்பாட்டை	-10.741
▁மொபைல்	-10.741
▁விளிம்பு	-10.741
▁அதிர்ச்சி	-10.741
▁இஸ்லாம்	-10.7411
▁வல்லுநர்	-10.7411
▁பொருளியல்	-10.7421
▁முன்னிலையில்	-10.7424
▁வணிகர்	-10.7427
▁கூறியது	-10.7435
Di	-10.7435
ழற்சி	-10.7437
▁1953	-10.7438
▁கருதப்பட்ட	-10.7439
▁நடத்தினார்	-10.7447
▁பார்ப்ப	-10.7452
▁குருவி	-10.7461
▁அநேக	-10.7462
▁நோயை	-10.7462
▁பயன்பாட்டில்	-10.7463
▁இப்படத்தை	-10.7463
▁மந்திர	-10.7467
▁1935	-10.7467
நெறி	-10.7468
▁ஆகியவற்றுடன்	-10.7471
▁கிழக்கே	-10.7472
விடுகின்றன	-10.7474
▁தெளிவு	-10.7475
யுடனும்	-10.7478
▁இறைச்சி	-10.7483
▁கொடுக்கும்	-10.7484
இதன்	-10.7488
▁பழங்குடியினர	-10.7492
▁அழிந்து	-10.7504
▁கூறலாம்	-10.7506
▁மேற்கொண்டு	-10.751
▁கருவறை	-10.7514
▁வானிலை	-10.7514
▁ஆல்ககால	-10.7515
▁ஆரஞ்சு	-10.7516
min	-10.7518
▁கிளாப்டன	-10.7523
▁ஆரம்பகால	-10.7536
▁புவியின்	-10.7549
நியூ	-10.7555
சியோ	-10.7564
▁போட்டியாளர்	-10.7564
▁பருத்தி	-10.7566
▁ரிச்சர்ட்	-10.7566
▁ஆன்மீக	-10.7566
▁இன்னமும்	-10.7567
▁நாட்காட்டி	-10.7567
▁அறிவுறுத்த	-10.7568
▁வைத்திருக்க	-10.7569
▁அம்சங்களை	-10.7572
▁இக்கட்ட	-10.7572
▁பாடியுள்ளார்	-10.7578
▁மேய்	-10.7579
iv	-10.7582
ப்பிரிவு	-10.7583
▁கருதப்படுகின்றன	-10.7591
▁இக்கோயில	-10.7601
▁அழைப்பர்	-10.7602
gen	-10.7604
▁சிற்பங்கள்	-10.7615
▁கம்யூனி	-10.7619
▁இந்நிறுவனம்	-10.7619
▁பூஜை	-10.7619
▁தகுந்த	-10.762
பிடிப்பு	-10.7624
▁தூரத்தில்	-10.7628
▁பண்புகளை	-10.763
▁அல்லாமல்	-10.763
தமிழ	-10.7641
▁அக்காலத்தில்	-10.7644
▁செய்துள்ளார்	-10.7646
Po	-10.7648
சார்ப	-10.7654
பார்க்க	-10.7657
▁இவ்விரு	-10.7664
▁பின்பற்றி	-10.7664
▁தகவலை	-10.7668
▁வளர்சிதை	-10.7672
▁ஜப்பானிய	-10.7672
▁தனித்துவமான	-10.7672
▁தாமரை	-10.7672
▁சிரியா	-10.7675
▁ஒழுக்க	-10.7677
▁அயர்லாந்த	-10.7677
▁வசன	-10.7679
▁இழைய	-10.7686
▁படைகளுக்கு	-10.7703
யாவார்	-10.7705
▁செய்கின்றனர்	-10.7707
▁கோபேன	-10.7716
▁வயதான	-10.772
▁அகாடமி	-10.7725
▁எளிமையான	-10.7725
▁தென்மேற்கு	-10.7725
▁ஜனநாயக	-10.7725
▁சிவபெருமான	-10.7725
▁இங்கிலாந்தின்	-10.7725
▁தஞ்சை	-10.7726
▁சதுப்பு	-10.7727
▁மாறுபாடு	-10.7728
▁அம்சங்கள	-10.7731
▁உலகளவில்	-10.7734
▁பெண்மணி	-10.774
▁உடலை	-10.7744
▁இடங்களுக்கு	-10.7746
▁அரசால்	-10.7747
▁1934	-10.7761
900	-10.7778
▁இருந்தபோதிலும்	-10.7779
▁நுண்ணுயிர்	-10.7779
ீசுவரர்	-10.7779
▁ஈர்ப்பு	-10.7779
▁சுருள்	-10.7782
வாசல்	-10.7786
▁தொடங்குகிறது	-10.779
▁போகும்	-10.7791
▁இயக்கினார்	-10.7793
▁அன்ப	-10.7794
ast	-10.78
▁போதிய	-10.7801
▁இயற்கையான	-10.7806
கட்சி	-10.7807
▁மறைந்து	-10.7811
▁தொங்க	-10.7817
▁சிகர	-10.7823
▁மைதான	-10.7824
▁வாங்கிய	-10.7828
▁நீர்த்தேக்க	-10.7832
▁இதன	-10.7833
form	-10.7833
ேஸ்வரர்	-10.7836
▁அழைப்பு	-10.7836
▁மங்கோலியர்கள	-10.7842
▁இடைமுக	-10.7843
▁மில்லி	-10.7853
▁பிணைப்ப	-10.7854
▁ஊற்ற	-10.7865
iz	-10.7872
her	-10.7873
▁சம்பந்தப்பட்ட	-10.7873
▁கூறுகின்றனர்	-10.7874
▁அதிரடி	-10.7887
▁மெட்டல்	-10.7887
▁மோட்டார்	-10.7887
▁ஈடுபாடு	-10.7888
▁மக்களிடையே	-10.7889
▁ஆறாவத	-10.7892
▁உற்பத்தியாளர்கள	-10.7895
பூரில்	-10.7896
▁பின்னால்	-10.7896
▁நினைக்க	-10.7899
▁விசுவ	-10.79
ood	-10.7905
▁தீவிரவாத	-10.7919
▁கலவர	-10.7921
▁மக்களும்	-10.7924
ினாா்	-10.7928
▁இந்திரா	-10.7934
▁தேற்ற	-10.7935
அறிவிக்கப்பட்டது	-10.7937
▁உபகரண	-10.7941
▁சிவகங்கை	-10.7941
▁நிலத்தடி	-10.7941
ாச்சார	-10.7941
▁மைசூர்	-10.7943
▁பாகை	-10.7946
▁1938	-10.7956
▁ஆரம்பிக்க	-10.7965
▁நாடாக	-10.7982
▁பேரின	-10.799
▁ஜெர்மானியர்	-10.799
▁மூலமும்	-10.7995
▁ஜெனரல்	-10.7995
▁குற்றவாளி	-10.7995
lor	-10.7995
▁கறுப்பு	-10.7996
▁படுக்கை	-10.7996
SD	-10.8004
▁நாளை	-10.8005
ஐதர	-10.8011
mp	-10.8015
bi	-10.8029
▁கட்சியை	-10.8034
▁அங்குள்ள	-10.8038
லாந்தில்	-10.8039
▁அவசியமாக	-10.8043
mon	-10.8049
▁அசிட்டேட்டு	-10.805
▁ஆக்கிரமிப்ப	-10.805
▁தீபகற்ப	-10.805
▁கண்காணிக்க	-10.805
▁வினைபுரிந்து	-10.805
▁பொதுமக்கள	-10.8051
▁தாமஸ்	-10.8052
▁மாற்றியமைக்க	-10.8054
ினதும்	-10.8055
▁வெறும்	-10.8057
▁சூழ்ந்த	-10.8058
▁பேச்ச	-10.8059
▁ஜோலி	-10.8061
தோறும்	-10.8062
▁மாவட்டங்களில்	-10.8062
▁ஆகியோரால்	-10.8064
▁அளிக்கிறது	-10.8064
▁அக்கால	-10.8072
▁ஆதிக்க	-10.8073
▁விபர	-10.8075
ரெய்	-10.8076
▁1942	-10.8078
நிகழ்	-10.808
ிருக்கிற	-10.8082
▁தாக்குதலை	-10.8083
▁உருவாகிய	-10.8105
▁காலமானார்	-10.8106
▁சேகரிக்க	-10.8106
▁எலக்ட்ரான்	-10.8107
▁திசுக்கள	-10.8108
▁கருதப்படுகிறார்	-10.8109
▁மராத்திய	-10.8112
▁கடினமாக	-10.8113
ong	-10.8123
வராய	-10.813
▁சாப்பிட	-10.8132
▁வகுத்த	-10.8134
▁அமைகின்றன	-10.8136
▁2019	-10.8137
▁கணக்கெடுப்பின்	-10.8139
▁மந்திரி	-10.8147
▁Li	-10.8155
ance	-10.8161
▁பந்துவீச்சில்	-10.8161
▁இறக்குமதி	-10.8161
▁அகமது	-10.8162
▁ஆறாம்	-10.8162
▁மின்னழுத்த	-10.8163
▁தெரியாத	-10.8168
பியூட்ட	-10.8171
மன்ற	-10.8174
ராசா	-10.8183
▁செயல்பாடுகளை	-10.8183
▁வள்ளி	-10.8184
▁கற்றார்	-10.8187
களாவன	-10.8191
▁இரவில்	-10.82
▁1936	-10.8203
திரைப்பட	-10.8206
▁கருதப்பட்டது	-10.8208
ஃபர்	-10.8216
▁இவ்வாறான	-10.8217
▁காப்புரிமை	-10.8217
▁பவுண்டு	-10.8217
▁கண்டிப்பாக	-10.8218
▁மாவட்டத்திலுள்ள	-10.8223
▁விண்ண	-10.8223
▁விதமான	-10.8224
▁முடியாமல்	-10.8226
▁தெரியவில்லை	-10.8228
▁வாழ்வில்	-10.8236
கொடுத்த	-10.8239
மதுரை	-10.8252
▁எந்திர	-10.8255
▁இசைத்தொகுப்ப	-10.8256
எதிர்	-10.8259
▁பகுப்பாய்வ	-10.8262
▁கொஞ்ச	-10.8264
▁ஒன்றியத்தின்	-10.8265
▁நிறுவனத்திற்கு	-10.8265
▁கடன	-10.827
▁சுருக்கமாக	-10.827
▁தங்களுடைய	-10.8273
▁பரிணாம	-10.8273
▁விவகார	-10.8273
▁வெளிப்படையாக	-10.8273
▁மகாத்மா	-10.8274
▁ஒப்பிடுகையில்	-10.8274
▁எவ்வளவு	-10.8274
▁கதிர்வீச்சு	-10.8274
▁சேகரித்த	-10.8276
▁பழமை	-10.828
▁இருக்காது	-10.8285
த்திறன	-10.8294
பாட்டில்	-10.8295
▁மூலக்கூற	-10.8298
▁எகிப்திய	-10.8305
▁இயற்கையாக	-10.8307
▁களிமண்	-10.8313
சந்திர	-10.8319
▁பாக்கித்தான	-10.8325
▁அண்டர்டேக்கர	-10.833
▁வழிவகுக்க	-10.833
▁நூற்றாண்டைச்	-10.8331
▁அருள	-10.8336
அரச	-10.8336
▁முன்னால்	-10.8337
▁கூட்டமைப்ப	-10.8337
▁ஊதிய	-10.8343
ப்படுகிற	-10.8346
தொலை	-10.8348
▁தூக்கி	-10.8351
▁யூதர்	-10.8352
ிருத்தல்	-10.8352
ிலிருக்கும்	-10.8354
▁தொகுத்து	-10.8355
▁ஏமாற்ற	-10.8356
▁பெருக்கி	-10.836
▁காரணங்கள்	-10.8378
▁தலைவன	-10.838
▁கர்ப்ப	-10.8385
▁முடுக்க	-10.8386
▁பிரகாஷ்	-10.8387
▁பத்தாண்டு	-10.8387
▁பஞ்சாபி	-10.8387
fer	-10.839
▁பிரிந்த	-10.8397
ark	-10.8398
rea	-10.8403
ிறோம்	-10.8405
▁விளைவை	-10.8406
▁1924	-10.841
▁ஆழமான	-10.8412
▁நிரல	-10.8417
▁வீச்ச	-10.8422
▁கருத்தாக்க	-10.8422
ick	-10.8426
▁மெய்யெழுத்து	-10.8444
▁இரகசிய	-10.8444
▁கணிக்க	-10.8444
▁இறால்	-10.8444
▁கிரீன்	-10.8445
▁பொறியாளர்	-10.8448
ஸெ	-10.8453
HO	-10.8455
▁குடியரசின்	-10.8459
▁சொல்லாட்சிக்	-10.846
▁செய்முறை	-10.8463
▁நாடுகளிலும்	-10.8469
▁அறிவுரை	-10.8475
▁நடிப்பில்	-10.848
▁வகைப்பாட்ட	-10.8482
▁பாதுகாவல	-10.8501
▁ஜெர்மன்	-10.8501
▁தணிக்கை	-10.8501
▁ஐந்தாம்	-10.8501
▁நாளிதழ	-10.8504
▁கழுத்து	-10.8505
▁ஏற்படுத்திய	-10.8506
▁கூறியுள்ளார்	-10.8512
தொடர	-10.8512
▁முன்னேறி	-10.8513
▁மாத்திரை	-10.8516
▁தாவரவியல்	-10.8516
▁ஆசிரியர	-10.8517
▁வழிநடத்த	-10.852
▁வோல்	-10.8521
▁துடிப்ப	-10.8529
▁அளித்தார்	-10.8532
▁டெஸ்ட்	-10.8533
▁இப்பெயர்	-10.8535
▁குறைவாகவே	-10.8537
▁மூடப்பட்ட	-10.8538
▁லவ்	-10.854
குழந்தை	-10.854
ies	-10.8542
ach	-10.8547
குமார	-10.8549
▁வழிபட்ட	-10.8549
▁என்னை	-10.8549
▁விளக்கப்பட	-10.8558
▁சுண்ணாம்பு	-10.8559
▁சரவண	-10.8559
▁இளையராஜா	-10.856
▁பிரேசில்	-10.8562
க்கூடாது	-10.8564
▁ஓய்வ	-10.8565
▁வளிம	-10.8565
தொகுதியிலிருந்து	-10.857
▁இளமை	-10.8572
▁விஞ்ஞானி	-10.8577
ture	-10.8577
▁தேவார	-10.8581
cle	-10.8586
▁இயேசுவின்	-10.8589
▁ஆக்ஸி	-10.86
▁அமிலத்தை	-10.8612
▁ஆப்கானிய	-10.8617
▁அலுவல்	-10.8617
தேசிய	-10.8618
▁பொறுத்தவரை	-10.862
▁கொடுமை	-10.8622
IA	-10.8625
▁கணபதி	-10.8626
▁கொடுக்கிறது	-10.8627
▁உதாரணத்திற்கு	-10.8628
▁அதிபர்	-10.8629
டுப்பாட்டக்காரர்	-10.8636
▁ஆகியவற்றால்	-10.8636
▁ஆற்றை	-10.8638
▁அகில	-10.8655
▁ஆரோகண	-10.8655
னீசிய	-10.8656
▁நிர்வாகி	-10.8656
▁மயக்க	-10.866
▁மாணவர்களுக்கு	-10.866
we	-10.8663
▁எளித	-10.8668
▁அவரோகண	-10.8671
▁வளைகுடா	-10.8676
▁கூற்றுப்படி	-10.8676
▁சட்டசபை	-10.8676
▁அன்றைய	-10.8676
▁மீனாட்சி	-10.8676
▁அதனுடைய	-10.8677
▁வெண்கல	-10.8678
▁நச்சுத்தன்மை	-10.8678
▁வருவது	-10.8682
▁ஈடுபடுத்த	-10.8684
செலுத்த	-10.8689
▁நிகழ்கிறது	-10.8693
▁ஃப்ள	-10.87
▁முகவரி	-10.8701
▁பெறுவதற்கு	-10.8706
tro	-10.8712
▁கற்பிக்க	-10.8712
▁ஈடுபட்டார்	-10.8717
▁விக்கிப்பீடியா	-10.8734
▁அகவையில்	-10.8735
▁பெறுகின்றன	-10.8735
▁ஆழ்ந்த	-10.8738
▁ராமசாமி	-10.8739
பாளைய	-10.8745
▁வேறுபாட்ட	-10.875
▁ஒளிப்பட	-10.8758
▁விரும்பினார்	-10.8769
▁ஆட்டோ	-10.8769
▁1928	-10.8771
சித்திர	-10.8776
ுறவு	-10.8779
▁ஆரம்பிக்கப்பட்ட	-10.8784
▁துல்லியமாக	-10.8788
▁கிரிக்இன்ஃபோவில	-10.8794
▁விழுப்புரம்	-10.8794
▁ஊக்குவிக்க	-10.8794
▁காவலர்	-10.8795
▁பூர்த்தி	-10.8796
▁பணிபுரிய	-10.8797
▁எண்ணற்ற	-10.8798
▁இத்தாக்குதல	-10.88
▁வாசகர்	-10.8801
நுட்ப	-10.883
▁விமர்சனங்களை	-10.8832
▁விரல்	-10.8834
▁ஒதுக்கப்பட்ட	-10.8852
▁ஆயிரக்கணக்கான	-10.8853
▁இலக்கணமயமாக்கம்	-10.8853
▁மாநாட்டில்	-10.8853
▁களஞ்சிய	-10.8853
▁பயன்பாட்டிற்க	-10.8853
▁வான்படை	-10.8853
▁பங்காற்ற	-10.8857
▁மீட்க	-10.8859
▁கோவிந்த	-10.886
பிள்ளை	-10.8867
பொறி	-10.887
▁இயற்றப்பட்ட	-10.8872
ிழப்பு	-10.8889
ுதலுக்கு	-10.8889
AM	-10.8893
▁வாழ்கின்றன	-10.8894
▁கண்டுபிடித்தார்	-10.89
நீதி	-10.8901
▁ஆதரவை	-10.8908
▁பரிவர்த்தனை	-10.8913
▁குத்தூசி	-10.8913
▁கொழும்பு	-10.8913
▁கிழமை	-10.8913
▁ஜோசப்	-10.8914
▁எரிபொருள	-10.8918
▁தீங்கு	-10.8918
▁பாடத்திட்ட	-10.8918
▁கிராமப்புற	-10.8919
▁ஈரோடு	-10.892
சதுர	-10.8921
▁அளக்க	-10.8922
பரப்பில்	-10.8931
▁இப்பள்ளி	-10.895
▁இனத்தவர	-10.8955
▁உணர்வ	-10.8959
▁புதுப்பிக்க	-10.8969
▁சூறாவளி	-10.8973
▁தொலைத்தொடர்பு	-10.8973
▁நிபந்தனை	-10.8973
▁தூத்துக்குடி	-10.8973
▁நுண்ணறிவு	-10.8974
▁அஞ்சலி	-10.8975
▁கருநாடக	-10.8975
▁அலைவரிசை	-10.8976
▁இருப்பதில்லை	-10.8977
▁வெற்றிபெற்ற	-10.8985
▁தீவிரமாக	-10.8987
▁ஏதாவத	-10.8994
குழல்	-10.9004
▁செயற்பட	-10.9016
▁டிஜிட்டல்	-10.9034
▁சேகரிப்ப	-10.9036
ப்பிரிவ	-10.904
விளக்க	-10.9046
▁சமீபத்தில்	-10.9046
ெடுக்கப்பட்ட	-10.905
▁தூண்டுதல	-10.9052
▁யூரியா	-10.9056
ுதலில்	-10.9061
▁திரும்பினார்	-10.9064
▁ஆரம்பித்தார்	-10.9065
▁செம்ம	-10.9071
▁1932	-10.9073
▁செயல்பாட்டை	-10.9073
▁AB	-10.9073
▁இன்றி	-10.9074
▁தலைநகரமாக	-10.9075
ிருக்கவில்லை	-10.9086
▁கூறுவத	-10.9087
▁கொண்டவையாக	-10.9094
▁இயல்பாக	-10.9094
▁விரிகுடா	-10.9095
▁வளியேற்ற	-10.9095
▁தினசரி	-10.9097
▁வாழ்நாள்	-10.9098
▁மரபியல்	-10.9101
▁வழிபாட்டு	-10.9101
▁கொள்கிறது	-10.9109
▁தர்க்க	-10.9114
▁அனுப்பப்பட்ட	-10.9116
ளவிலான	-10.9121
▁பங்கேற்றார்	-10.9126
▁1923	-10.9134
கொள்வதற்கு	-10.9136
▁திமுக	-10.9147
லெஸ்	-10.915
▁சரணாலய	-10.9156
▁இமயமலை	-10.9156
▁கண்காட்சி	-10.9156
▁நாமக்கல்	-10.9156
▁நியமித்த	-10.9156
▁விடுவிக்க	-10.9161
▁மைக்ரோ	-10.9169
▁நூற்றாண்ட	-10.9169
▁தொடர்புடையதாக	-10.917
▁இயங்குகிறது	-10.9172
▁பண்பாட்ட	-10.9181
▁கண்டெடுக்க	-10.919
▁Mar	-10.9196
▁பேஜ்	-10.9198
▁நூலாக	-10.9214
▁மறுமலர்ச்சி	-10.9218
▁கோயிலில்	-10.9218
▁விளங்கினார்	-10.9236
ப்பெருக்க	-10.9249
▁வருவாய	-10.9264
▁சிரம	-10.9267
▁சேர்மமாக	-10.927
▁செயலாளர	-10.9279
▁சான்றிதழ்	-10.928
▁மக்னீசியம்	-10.928
▁மீதமுள்ள	-10.928
▁விரிவுபடுத்த	-10.928
▁கவர்ச்சி	-10.928
▁விஸ்கி	-10.9282
▁ஞாயிற	-10.9282
▁மணந்தார்	-10.9285
▁இரைப்பை	-10.9286
▁உருமாற்ற	-10.9286
▁மற்றொன்று	-10.9287
▁வேறுபடுத்தி	-10.9288
▁ஜப்பான்	-10.9288
▁கைவிடப்பட்ட	-10.9288
தொலைக்காட்சித்	-10.9297
பட்டினம்	-10.9299
▁திகில்	-10.9303
▁இருக்கிற	-10.9304
▁துருக்கி	-10.9325
▁விண்ணப்ப	-10.9331
az	-10.9335
குமாரி	-10.934
▁நரசிம்ம	-10.9342
▁எலிசபெத்	-10.9342
▁கோயிலாகும்	-10.9342
▁திருக்குறள	-10.9342
ஆப்கானித்தான	-10.9342
டபிள்யு	-10.9343
ச்சந்திரன்	-10.9343
▁நிவாரண	-10.9343
▁உண்டாகும்	-10.9344
▁அதிகாரபூர்வ	-10.9346
▁பர்மிய	-10.9348
▁பிரான்ஸ்	-10.9354
▁கடவு	-10.9355
▁கூறுகின்றன	-10.9356
▁காட்சிப்படுத்த	-10.9359
▁பிரதிநிதியாக	-10.936
குழாய்	-10.936
▁இறங்கி	-10.9363
ெல்லை	-10.9367
சென்னை	-10.9369
▁இலகு	-10.9377
▁மருந்தாக	-10.9381
▁மார்பு	-10.9389
▁வன்னி	-10.9393
▁சேர்ப்ப	-10.9397
ம்மாள்	-10.9398
▁நெருக்கமாக	-10.9405
▁கொண்டாட்ட	-10.9407
▁மென்மையான	-10.9408
▁ஆதரவாளர்	-10.9409
▁பால்வெளி	-10.9411
▁நிரம்ப	-10.9412
▁படையினர	-10.9412
▁கணவாய்	-10.9413
▁நமக்கு	-10.9413
▁இலக்கினை	-10.9413
த்தோற்ற	-10.9421
▁வலதுகை	-10.9424
▁கெய்	-10.9445
▁1929	-10.9456
பயிற்சி	-10.9459
▁திட்டங்களை	-10.9462
▁குற்றச்சாட்டு	-10.9469
▁டெய்லர்	-10.9469
▁சிலுவை	-10.9476
▁மணிநேர	-10.9476
▁சூத்திர	-10.9487
குறியீட	-10.9489
க்கொண்டே	-10.949
▁கழித்த	-10.9493
▁படைத்தலைவ	-10.9495
▁ஆகியோரை	-10.9513
▁சேர்மங்களை	-10.9519
▁இலண்டன்	-10.9532
▁வாடகை	-10.9532
▁அகராதி	-10.9532
▁பிரம்மா	-10.9534
▁தகடு	-10.9537
▁அவருடன்	-10.9543
▁கொல்லப்பட்டனர்	-10.9545
▁பரப்பளவில்	-10.9546
▁குரல	-10.9551
▁தொப்பி	-10.956
IN	-10.9576
▁அடையாளப்படுத்த	-10.9592
▁உருவாவத	-10.9593
▁மகாராட்டிர	-10.9596
▁பொழுதுபோக்கு	-10.9596
▁இதன்மூலம்	-10.9597
▁ஆதரித்த	-10.9597
வெள்ளீய	-10.96
▁அதிகரிக்கிறது	-10.9604
▁தகவல	-10.9607
▁அனுமதிக்கிறது	-10.9609
▁வலய	-10.9609
சூழல	-10.961
▁போக்குவரத்த	-10.9616
▁இயக்குனராக	-10.9619
▁1933	-10.9627
▁ஆகியவற்றிற்கு	-10.9628
▁1921	-10.9641
▁வாழிட	-10.9649
Ac	-10.9653
கீழ	-10.9654
▁மொழிக்குடும்ப	-10.9661
▁அழைக்கிறார்கள்	-10.9661
▁வேற்றுமை	-10.9661
▁விவேக	-10.9662
பியூட்டைல்	-10.9662
மூன்று	-10.9662
▁தொழிற்துறை	-10.9662
▁மின்னோட்ட	-10.9665
▁தயாராக	-10.9668
▁நிரலாக்க	-10.9671
▁கூட்டாளி	-10.9671
2006	-10.9675
▁விரிவாக	-10.9676
▁அழகான	-10.9676
▁திறப்பு	-10.9685
▁அதற்க	-10.9712
▁கொள்வது	-10.972
▁இலித்தியம்	-10.9726
▁எபிரேய	-10.9726
▁பீடபூமி	-10.9726
▁சீனிவாச	-10.9726
ung	-10.9727
▁முழுதும்	-10.9736
▁பிரிவினை	-10.9739
▁ஏதும	-10.9742
▁நடிகைக்கான	-10.9745
▁தாயக	-10.9746
▁தமிழ்நாட்ட	-10.9746
▁க்ள	-10.9747
ருவாக்க	-10.9748
▁மோசமாக	-10.9758
இயக்க	-10.9759
ஹவுஸ்	-10.9762
▁இருபதா	-10.9767
மதிப்பீட்ட	-10.9782
▁கருத்தியல	-10.9787
மங்கல	-10.9789
▁Le	-10.9789
▁அற்புத	-10.9791
▁வீட்டிற்கு	-10.9791
▁நிர்ணயிக்க	-10.9791
▁நியாய	-10.9793
▁சமன்பாட்ட	-10.9796
▁மரபுவழி	-10.9798
▁லேசர்	-10.9801
▁பிரசுர	-10.9807
ிறாள்	-10.9807
▁டிரைவ்	-10.9808
▁கோயிலின	-10.981
▁ஈரப்பத	-10.9818
▁எவ்வ	-10.983
▁அகன்ற	-10.9831
▁நூற்	-10.9835
புளோரைடு	-10.9853
▁விழிப்புணர்வு	-10.9857
▁ஆற்காடு	-10.9857
▁உலகக்கோப்பை	-10.9857
▁காய்கறி	-10.9857
▁பிறப்பிடமாக	-10.9857
கிறி	-10.9858
▁விண்கல	-10.9858
▁காரணத்தினால்	-10.986
▁நிறமாலை	-10.9861
▁என்பவன	-10.9868
▁நேர்மின்	-10.987
கிழார்	-10.9888
ுணர்ச்சி	-10.9896
பொருட்களை	-10.9912
சட்டமன்றத்	-10.992
▁பெரிதாக	-10.9921
▁பெருநகர	-10.9922
▁பங்கேற்ப	-10.9923
▁வேளைகளில்	-10.9924
▁வெகுவாக	-10.9928
▁எடுத்துக்கொண்ட	-10.993
ங	-10.9931
▁அடுத்தடுத்த	-10.9936
▁மின்கல	-10.9939
IR	-10.9944
▁பாடலாக	-10.9948
▁அவ்வாற	-10.9954
பென்ச	-10.9955
▁கமல	-10.9973
▁1925	-10.9974
▁குங்குமப்பூ	-10.999
▁சிறிதளவு	-10.999
▁நறுமண	-10.999
▁வறுமை	-10.9991
▁கடலூர்	-11
விஜய	-11.0001
▁வாசிப்ப	-11.0002
▁தொடர்பை	-11.0006
Vi	-11.0007
▁தெரிவ	-11.0011
▁சுருங்க	-11.0011
▁செல்கின்றன	-11.0016
land	-11.0018
▁நீடிக்க	-11.0023
▁செயலாற்ற	-11.0029
படியான	-11.0037
ase	-11.0054
▁சரணடைந்த	-11.0057
▁முழுவதுமாக	-11.0057
▁வாக்காளர்	-11.0059
▁பயன்பாட்டை	-11.006
▁எக்சு	-11.0062
▁வீச்சாளர	-11.0063
▁கோடைகால	-11.0065
▁மலாய்	-11.0075
▁உடனே	-11.0076
▁வீட்டை	-11.0076
act	-11.0089
▁பண்டார	-11.0093
▁விவாதிக்க	-11.011
இடம்பெற்றிருந்தன	-11.0113
▁ஆளுநராக	-11.0116
செப்ட	-11.0119
▁தெரிவிக்கின்றன	-11.0121
▁கதாநாயகி	-11.0125
▁பஞ்சாயத்து	-11.0125
▁மிகுதியாக	-11.0125
▁மிகச்சிறந்த	-11.0126
▁அடர்ந்த	-11.0126
▁செய்வதற்காக	-11.0127
2008	-11.013
▁பதப்படுத்த	-11.0134
ஃபீல்ட	-11.0134
▁பெயராக	-11.0157
▁குடியரச	-11.0172
▁நற்கருணை	-11.0193
▁எளிமையாக	-11.0193
▁உடற்பயிற்சி	-11.0193
▁பிரான்சிஸ்	-11.0193
▁மாணிக்க	-11.0194
▁பணக்கார	-11.0196
▁பிரசவ	-11.0196
▁மகேந்திர	-11.0196
▁செல்வாக்க	-11.0199
▁ஒழுங்குபடுத்த	-11.0204
▁நவாப்	-11.0207
2009	-11.0214
▁மாணவி	-11.0217
▁போரிட்ட	-11.0223
▁வழிகாட்டி	-11.0227
▁இசைக்குழுவின	-11.0231
▁குளிர	-11.0233
▁சமகால	-11.0247
ளிப்பத	-11.0248
டெய்	-11.0248
▁குழாய	-11.0258
▁யுனைடெட்	-11.0261
▁முழுவதிலும்	-11.0261
▁விஷுவல்	-11.0261
▁சூடுபடுத்த	-11.0262
▁அரவிந்த	-11.0262
▁இவற்றுள்	-11.0263
▁புரிந்துகொள்ள	-11.0264
▁சமஸ்தான	-11.0266
விடுகிறார்	-11.028
த்தொகுப்பு	-11.0283
▁விலங்கின	-11.0311
சயன	-11.0315
க்கல்லூரி	-11.0318
John	-11.033
▁சொற்றொடர	-11.033
▁திண்டுக்கல்	-11.033
▁ஜாகுவார்	-11.0331
▁ஒல்லாந்த	-11.0332
AR	-11.0337
▁எதிர்கொள்ள	-11.0341
க்காரணி	-11.0344
▁பிரித்தெடுக்க	-11.0362
க்கொண்டிருந்த	-11.0368
▁1931	-11.0372
மருந்து	-11.0385
விட்டதாக	-11.039
அதிகாரப்பூர்வமாக	-11.0397
▁நிர்வகித்த	-11.04
▁வேறொரு	-11.04
▁கணக்கெடுப்பு	-11.04
▁அமோனியம்	-11.04
▁நன்கொடை	-11.04
▁தோற்றுவித்த	-11.04
▁அக்கறை	-11.04
▁கவுன்சில	-11.0401
▁கற்பித்தல்	-11.0403
▁தாய்லாந்து	-11.0404
▁ஆண்டிற்கான	-11.041
▁செய்வதை	-11.0411
▁அவனுக்கு	-11.0411
▁பிரிவினர	-11.0417
▁இத்தீவ	-11.042
ப்புத்தக	-11.0423
வெற்றி	-11.0424
ிரண்டு	-11.044
▁சூடான	-11.0449
சிலிக்க	-11.0466
▁பொதுநலவாய	-11.0469
▁முதுகெலும்ப	-11.0469
▁ஹன்னிபால	-11.0469
▁இருத்தலியல	-11.047
▁சற்றே	-11.047
▁வறண்ட	-11.047
▁அதனுடன்	-11.0474
▁நுண்ணுயிரி	-11.0483
நூல	-11.0486
▁இடமாற்ற	-11.0488
▁தேர்தல	-11.0489
Fe	-11.049
▁கிடைப்பத	-11.0492
குடும்ப	-11.0499
▁விஞ்ஞான	-11.0518
▁வளைந்த	-11.0524
▁திபெத்	-11.0533
▁அருகாமையில்	-11.054
▁ஒவ்வாமை	-11.054
▁நற்செய்தி	-11.054
▁பயோடீசல	-11.054
▁திகழ்கிறது	-11.054
▁மௌரிய	-11.054
▁ரேடியோ	-11.0542
▁என்பதற்கான	-11.0542
▁வெளிநாடு	-11.055
▁புளோரின	-11.0552
▁வேலூர்	-11.0554
▁ஆங்காங்	-11.0556
▁இயக்குநர	-11.0576
▁1927	-11.0585
▁வரையப்பட்ட	-11.0596
▁மட்டுமல்லாமல்	-11.0611
▁செயற்கைக்கோள்	-11.0611
▁கையகப்படுத்த	-11.0611
▁நாயுடு	-11.0611
▁ஒடிசா	-11.0611
▁இயற்பெயர்	-11.0611
▁ஸ்பெயின	-11.0612
▁ஒதுக்கீடு	-11.0613
▁காயமடைந்த	-11.0614
▁இணையதள	-11.0616
▁வசிப்ப	-11.0621
▁வினவ	-11.0622
▁கிராண்ட்	-11.0624
▁மேற்கே	-11.0632
▁விதிக்கப்பட்ட	-11.0639
▁மெகாடெத்	-11.0645
▁Com	-11.0659
▁ஜொ	-11.0675
▁குறுந்தொகை	-11.0682
▁நீரிழிவு	-11.0682
▁வரவேற்பைப்	-11.0682
▁முறியடித்த	-11.0682
▁ஹாலிவுட்	-11.0682
▁பிரகடன	-11.0682
▁கடிகார	-11.0682
▁மலாயா	-11.0683
▁ஒருங்கிணைக்க	-11.0687
▁இயலவில்லை	-11.0688
▁திடீரென	-11.0688
▁தனிப்பாடல	-11.07
ரத்ன	-11.0709
▁நடைமுறைப்படுத்த	-11.0711
▁எண்ணெய	-11.0715
லாந்தின்	-11.0737
▁Chemistry	-11.0754
▁நேர்மறையான	-11.0754
▁டோல்கீன	-11.0754
▁புள்ளிவிவர	-11.0754
▁சார்லஸ்	-11.0754
use	-11.0758
▁உலாவி	-11.0758
ப்பலகை	-11.0759
▁முனிவர்	-11.0761
▁எண்ணிக்கையிலான	-11.0762
▁எடுத்துக்காட்ட	-11.0777
▁பாடகர	-11.0814
ology	-11.0827
▁காலப்போக்கில்	-11.0827
▁தேங்காய்	-11.0827
▁எட்வர்ட்	-11.0827
ராஷ்டிர	-11.0827
▁வீழ்ந்த	-11.0827
▁தங்கியிருந்த	-11.0835
▁செர்பிய	-11.0845
▁குடியிருப்ப	-11.085
டெரிக்	-11.0894
ctor	-11.0896
▁Prize	-11.09
▁தெற்காசிய	-11.09
▁ஆபத்தான	-11.09
▁எவ்வித	-11.09
▁எம்ஐடி	-11.09
▁டேனியல்	-11.09
▁எசுத்தர்	-11.09
▁பிளாட்டினம்	-11.0901
▁பாதரச	-11.0902
▁அனைவருக்கும்	-11.0902
சிகிச்சை	-11.0912
▁இணைக்கிறது	-11.0918
ுமாவார்	-11.0919
▁மேம்பாட்ட	-11.092
▁செயல்படுகின்றன	-11.0925
▁கவனிப்ப	-11.0956
▁தனிமங்கள	-11.0957
▁நினைவுச்சின்ன	-11.0973
▁விதிவிலக்க	-11.0973
▁புல்வெளி	-11.0973
▁பயங்கர	-11.0973
▁செய்வதன்	-11.0974
▁தடகள	-11.0977
▁உண்ப	-11.0978
▁நீலகிரி	-11.0979
▁விழுங்க	-11.0981
▁வெறுப்ப	-11.0985
▁செயலாளராக	-11.0992
▁1909	-11.1013
▁அட்லாண்டிக்	-11.1047
▁தற்காப்பு	-11.1047
▁கலாசார	-11.1047
▁எந்தவித	-11.1047
▁திடீர்	-11.1049
▁சித்திரவதை	-11.1049
▁மறுபடியும	-11.1057
சோதனை	-11.106
▁திகழ	-11.1062
பிலிம்பேர்	-11.1066
ock	-11.1072
▁வேண்டுமென	-11.1104
▁CHO	-11.1111
▁எலக்ட்ர	-11.112
▁சமச்சீர்	-11.1122
▁முள்ளந்தண்டு	-11.1122
▁மனநல	-11.1122
▁பிரிட்டானிய	-11.1122
▁நைட்ரஜன	-11.1125
▁இரகத்தை	-11.1127
▁தொப்புள	-11.1128
▁கவர்ந்த	-11.1144
▁படுகை	-11.1161
▁செய்வதில்	-11.1177
கவுண்ட	-11.1191
▁தோற்கடிக்க	-11.1197
▁பிரதிபலிக்க	-11.1197
▁வல்லுனர்	-11.1197
▁செயல்திட்ட	-11.1197
▁ஒத்துழைப்ப	-11.1197
▁ஓப்பன்	-11.1198
▁சம்பள	-11.1199
▁சுற்றுப்புற	-11.1201
▁இதனுடன்	-11.1202
▁இருவருக்கும	-11.1243
▁படையெடுப்ப	-11.1245
▁வற்புறுத்த	-11.1273
▁என்னுமிடத்தில்	-11.1273
▁செயிண்ட்	-11.1273
▁பட்டப்படிப்பு	-11.1273
▁காற்பந்து	-11.1273
▁பீரங்கி	-11.1273
▁கிறித்துவ	-11.1273
▁பாக்கிஸ்தான	-11.1274
ுவதோடு	-11.1276
▁விரட்ட	-11.1281
▁அதிகளவில	-11.1291
▁இந்நோய	-11.1298
▁காபூல	-11.1316
▁முதலீட்ட	-11.132
▁டிஸ்க	-11.1341
▁விசாக	-11.1344
ாமலும்	-11.1348
▁இராமநாதபுரம்	-11.1349
▁இரண்டாவதாக	-11.1349
▁நீர்ப்பாசன	-11.1349
▁வருடாந்திர	-11.1349
▁சமசுகிருத	-11.1349
▁ஹெட்ஜ்	-11.1349
▁ஆஸ்துமா	-11.1349
▁பேரழிவு	-11.1349
▁காய்ச்சல்	-11.1351
▁செய்வதற்கான	-11.1352
▁எல்லோர	-11.1355
தானாகவே	-11.1358
நூறு	-11.1367
சேர்க்கை	-11.1371
குறிப்பாக	-11.1374
▁மீன்பிடி	-11.1375
கணக்கான	-11.1383
▁தயாரிப்பாளர	-11.1395
▁எலும்ப	-11.1411
எக்ச	-11.1415
பல்கலைகழக	-11.1426
▁தோ்ந்தெடுக்க	-11.1426
▁வினைபுரியச்	-11.1426
▁துத்தநாக	-11.1426
▁இப்பறவை	-11.1426
▁குடிபெயர்ந்த	-11.1426
▁சேமித்து	-11.1427
▁புறநகர்	-11.1432
க்குள்ளாக	-11.1468
த்தொழில்	-11.1499
▁நாசீசிச	-11.1504
▁சரஸ்வதி	-11.1504
▁மூலிகை	-11.1504
▁வளர்ச்சியடைந்த	-11.1509
▁அறிஞர	-11.1523
▁தொகுத்த	-11.1563
prize	-11.1582
▁from	-11.1582
▁வகிக்கிறது	-11.1582
▁கல்கத்தா	-11.1582
▁கிர்பி	-11.1583
▁அரியணை	-11.1588
▁நுழைவாயில	-11.1593
▁ஸ்காட்	-11.1625
▁உபயோகிக்க	-11.1645
▁பிலிம்	-11.1648
▁யங்	-11.1658
▁ஏழாம்	-11.166
▁வானியற்பியல்	-11.166
▁மல்யுத்த	-11.166
▁மாரியம்மன்	-11.166
▁சஞ்சிகை	-11.1661
▁சமஸ்கிருத	-11.1661
▁பாபிலோனிய	-11.1661
▁தன்னார்வ	-11.1663
▁அழைக்கின்றனர்	-11.1665
▁மகனான	-11.1667
▁விஸ்வ	-11.1677
நடிகை	-11.1683
▁செய்வதாக	-11.1686
ப்படுத்துவத	-11.1687
வாழ்க்கை	-11.1692
ெதிர்	-11.1727
▁அத்தியாவசிய	-11.174
▁தரையிறங்க	-11.174
▁நீர்வீழ்ச்சி	-11.174
▁மட்டுமின்றி	-11.174
நேஷனல்	-11.174
▁காந்தாரம்	-11.174
▁இளவரசி	-11.174
▁ஐதரைடு	-11.174
▁சனநாயக	-11.174
▁பூஞ்சை	-11.174
▁ரகசிய	-11.174
▁சிஸ்டம்	-11.174
▁படுத்தியுள்ளார்	-11.1742
▁செயின்ட்	-11.1742
▁மூங்கில்	-11.1746
▁ஏற்பாட்ட	-11.1747
▁சங்கீத	-11.1747
ுறுதி	-11.1751
ஆங்கில	-11.1757
▁கவனித்து	-11.1761
▁நெருங்க	-11.1786
▁அமைச்சர	-11.1787
▁ஐதரசன	-11.1788
▁இயக்குனர	-11.1814
ுயிரி	-11.1815
▁ஆட்டமிழந்தார்	-11.182
▁இன்றியமையாத	-11.182
▁ஸ்டூடியோ	-11.182
▁நிருவாக	-11.182
▁குரங்கு	-11.1821
▁காரணங்களுக்காக	-11.1822
▁ராஜேந்திர	-11.1823
▁சிற்றூர்	-11.1829
▁கேட்ப	-11.1846
ound	-11.1857
▁தமக்கு	-11.1857
▁தவிர்த்த	-11.1858
பொழுத	-11.1859
நாடக	-11.1875
▁விளையாட்டரங்க	-11.1882
மருத்துவ	-11.1888
ோருக்கான	-11.1891
▁ஆட்டமிழக்க	-11.19
▁கும்பகோணம்	-11.19
▁அவரிடம்	-11.1909
▁கிடைக்கப்பெற	-11.1917
▁சாகச	-11.1922
நுண்	-11.1931
▁பறப்ப	-11.1981
நூற்று	-11.1981
▁பின்வருவன	-11.1982
▁இங்கிருந்து	-11.1982
▁ஆசிரம	-11.1982
▁தைவதம்	-11.1982
▁அசிட்டிக்	-11.1982
மெய்நிகர்	-11.1982
ச்சொற்கள	-11.1982
▁நீரிலி	-11.1982
▁மிருக	-11.1983
▁கார்பனேட்டு	-11.1985
▁ஆதாய	-11.1988
▁முடிவெடுத்த	-11.2007
=385	-11.2062
▁ஸ்கோர்செஸி	-11.2064
▁நெகிழ்	-11.2064
▁மெழுகு	-11.2064
▁தளவாட	-11.2064
▁நாகரீக	-11.2064
▁பனிக்கட்டி	-11.2066
க்குள்ளான	-11.2072
▁நகல	-11.2093
▁சேமிப்ப	-11.2113
▁சிட்டுக்குருவி	-11.2146
▁நாகப்பட்டினம்	-11.2146
▁பாடலாசிரியர்	-11.2146
▁கதாநாயகன	-11.2146
▁காலக்கட்டத்தில்	-11.2146
▁போர்முனையில்	-11.2146
▁கோயிலுக்கு	-11.2146
▁அந்நிய	-11.2146
▁தொடா்	-11.2147
▁சிகரெட்	-11.2147
இசையமைத்துள்ளார்	-11.2147
▁பணத்தாள	-11.2148
பாக்கித்தானியத்	-11.2151
▁நுண்ணோக்கி	-11.2156
▁மட்டையாளர	-11.2228
▁பணியாற்றியுள்ளா	-11.2229
அருணா	-11.2229
▁சுவிட்சர்லாந்த	-11.223
▁வனவிலங்கு	-11.223
▁மத்திமம்	-11.223
▁செருமானிய	-11.223
▁அருள்மிகு	-11.223
▁சுவீடன	-11.2233
▁வழிகாட்டுதல	-11.2252
▁வாசிக்க	-11.2255
▁வழிகாட்ட	-11.2261
ாழ்வார	-11.227
களிடத்தில்	-11.2303
▁பந்துவீச்சாளர	-11.2314
▁கருணாநிதி	-11.2314
▁லண்டனில்	-11.2314
▁பெட்ரோலிய	-11.2314
▁சமாதான	-11.2314
பகுப்ப	-11.2315
▁சமாளிக்க	-11.2317
▁சிகாகோ	-11.2318
பெருமாள்	-11.2347
விளையாட	-11.2352
▁அமைப்புக்கள	-11.2396
▁முரண்பாடு	-11.2398
▁ஏழாவது	-11.2398
▁நிலைநிறுத்த	-11.2398
▁என்விடியா	-11.2398
▁ஆராதனை	-11.2399
▁தோல்வியுற்ற	-11.2399
▁மடோனா	-11.2399
▁இந்நிறுவனத்த	-11.24
▁மேற்புற	-11.2403
▁ஒப்புக்கொண்ட	-11.2403
▁தரப்பினர	-11.2405
▁ஆக்சைட	-11.2419
ாயினும்	-11.2452
ோனேசிய	-11.2483
சுப்ரமணிய	-11.2484
▁வசிக்கின்றனர்	-11.2484
▁விமர்சிக்க	-11.2484
▁நன்னீர்	-11.2484
▁நெகிழி	-11.2484
▁வரையறுத்த	-11.2484
▁மெக்சிகோ	-11.2485
▁முற்பட்ட	-11.2485
▁எட்டாம்	-11.2486
▁அந்தோனி	-11.2486
▁சுமேரிய	-11.2489
▁தாய்ப்பால	-11.2498
▁மேளக	-11.2521
ave	-11.2524
▁பாஸ்கர	-11.2537
▁வாயுக்கள	-11.2554
▁சாமுவேல்	-11.257
▁நீர்மூழ்கி	-11.257
▁பேச்சுவார்த்தை	-11.257
▁இடப்பெயர்ச்சி	-11.257
▁நற்றிணை	-11.257
▁முதிர்ச்சி	-11.257
▁சேதுபதி	-11.257
▁வயிறு	-11.257
▁வண்டல்	-11.2571
▁உயிரிழந்த	-11.2571
▁பட்டதாரி	-11.2571
▁இழுத்து	-11.2571
கீர்த்தி	-11.258
▁புகார	-11.2586
▁சந்தர்ப்ப	-11.26
செய்யப்படுகின்றன	-11.2637
▁ஒப்பிட்டு	-11.2638
▁குளோரைட	-11.2639
சிறப்பு	-11.2655
▁அசாதாரண	-11.2657
▁ஒன்றுக்கொன்று	-11.2657
▁அபராத	-11.2657
களுக்கிடையில்	-11.2657
▁ஊழல்	-11.2657
▁மின்காந்த	-11.2657
▁வியாழன	-11.2657
▁சமையல்	-11.2658
▁கிருமி	-11.2658
▁நிறைவடை	-11.2659
▁திறனாய்வு	-11.2659
▁சிட்னி	-11.2659
▁பக்கவாட்ட	-11.2667
▁புகுந்த	-11.2689
மாட்டார்	-11.2693
▁சீடர்கள	-11.2696
▁தாயார	-11.2697
முக்கியத்துவத்தை	-11.2714
ுதலாக	-11.2738
▁குடியுரிமை	-11.2745
▁திருவாரூர்	-11.2745
▁நிதியுதவி	-11.2745
▁பழிவாங்க	-11.2745
▁காஞ்சிபுரம்	-11.2745
▁வறட்சி	-11.2745
▁கார்பாக்சில	-11.2745
▁முதன்முறையாக	-11.2745
▁குடைவரை	-11.2745
சைக்ளோ	-11.2746
▁பகுத்தறிவு	-11.275
பிளாட்டின	-11.2805
▁அலுமினிய	-11.283
▁ஏவுகணை	-11.2833
▁சுத்திகரிப்பு	-11.2833
National	-11.2833
ுறிப்பிடத்தகுந்த	-11.2834
▁வாரிசு	-11.2835
▁மட்டுப்படுத்த	-11.2843
பழைய	-11.2873
வேதியியல்	-11.2876
▁இவ்வெழுத்த	-11.288
▁அசோகர	-11.2888
▁லாகூர	-11.289
கொடுக்க	-11.2901
ஆடுதுறை	-11.291
▁சதுச	-11.2923
▁சனிக்கிழமை	-11.2923
▁இசுரயேல	-11.2923
▁திரையுலக	-11.2923
▁மட்டக்களப்பு	-11.2923
▁விமர்சித்த	-11.2923
▁மூலாதார	-11.2923
▁டென்மார்க்	-11.2923
▁செட்டியார்	-11.2923
▁ஆதலால்	-11.2923
▁அங்காடி	-11.2923
▁வினாடி	-11.2924
▁எதிர்பார்த்த	-11.2925
=425	-11.2934
▁ஒப்படைக்க	-11.295
▁கவிஞர	-11.2955
ுதலின்	-11.2997
▁மர்ம	-11.3003
ிழந்த	-11.3012
▁2008-10-0	-11.3013
▁அமாவாசை	-11.3013
▁திருவிதாங்கூர	-11.3013
▁பொதுவுடமை	-11.3013
▁மட்பாண்ட	-11.3013
▁பெங்களூர்	-11.3013
▁பெருங்குடல்	-11.3013
▁நுண்செயலி	-11.3013
▁அலைநீள	-11.3013
▁ஆற்றங்கரை	-11.3013
▁எட்டாவது	-11.3013
▁கூகுள்	-11.3013
▁ஊக்குவிப்ப	-11.3013
▁பிலிப்பைன்	-11.3013
▁சப்பானிய	-11.3013
▁நாடோடி	-11.3013
▁கழுகு	-11.3013
▁ஹெச்பி	-11.3013
▁கரையக்கூடிய	-11.3014
▁செய்பவர்	-11.3015
▁கழுவ	-11.3024
▁நடராஜ	-11.3035
▁அழைக்கப்படுகிறா	-11.3038
▁வடகிழக்க	-11.3047
▁திருமால	-11.3049
▁இத்தொடர	-11.3058
தஞ்சாவூர்	-11.3058
வளர்ச்சி	-11.3059
▁மரபணுக்கள	-11.3065
▁மேலதிக	-11.3078
▁Research	-11.3104
▁அக்டோபரில்	-11.3104
▁மாங்கனீசு	-11.3104
▁வெள்ளெலி	-11.3104
▁தேயிலை	-11.3104
▁காந்தியடிகள	-11.3104
▁எத்தனை	-11.3104
தயாரிப்ப	-11.3115
▁ஹாலந்த	-11.3119
▁வெளியிட்டுள்ளார	-11.3122
▁சுற்றுச்சூழல	-11.3137
நடிகர்	-11.3151
▁விடயங்கள	-11.3181
▁ஸ்மித்	-11.3193
▁உயர்நிலைப்பள்ளி	-11.3195
▁எக்ஸ்பிரஸ்	-11.3195
▁சிதம்பரம்	-11.3195
▁முதலாவதாக	-11.3195
▁மின்னஞ்சல்	-11.3195
▁புழக்கத்தில	-11.3196
▁பைரவர்	-11.3196
▁மாறுபடும்	-11.3197
▁இணங்க	-11.3215
▁குடியேற	-11.3216
▁பறக்க	-11.3239
நாராயண	-11.3243
▁முன்னிலை	-11.3263
▁இலையுதிர்	-11.3288
▁குத்துச்சண்டை	-11.3288
▁ஐந்தாண்டு	-11.3288
▁ஃபெராரி	-11.3288
▁மூதாதை	-11.3288
▁படைவீரர்கள	-11.3288
▁மொழிபெயர்க்க	-11.3289
▁குத்தகை	-11.3289
▁விபத்தில்	-11.329
▁கையாண்ட	-11.3299
▁பருமன	-11.3307
▁வகுக்க	-11.3322
▁மகிழ்வ	-11.3331
▁திரையரங்க	-11.3337
▁முன்வைக்க	-11.3344
▁சாதியினர	-11.3348
கடவுள	-11.3349
▁குறியீடாக	-11.3363
=402	-11.3373
▁விவாகரத்து	-11.3381
பேரூராட்சி	-11.3381
▁சலுகை	-11.3382
▁இஸ்ரேல	-11.3382
▁ஜம்மு	-11.3382
▁செங்குத்து	-11.3384
▁ரோமானிய	-11.3385
மராத்தி	-11.3406
▁வைணவ	-11.3411
▁முன்வைத்த	-11.3424
▁இரண்டையும	-11.343
“	-11.9236
‘	-12.6784
